{
  "version": "1.0",
  "truncation": {
    "direction": "Right",
    "max_length": 192,
    "strategy": "LongestFirst",
    "stride": 0
  },
  "padding": {
    "strategy": {
      "Fixed": 192
    },
    "direction": "Right",
    "pad_to_multiple_of": null,
    "pad_id": 3,
    "pad_type_id": 0,
    "pad_token": "<pad>"
  },
  "added_tokens": [
    {
      "id": 0,
      "content": "<unk>",
      "single_word": false,
      "lstrip": false,
      "rstrip": false,
      "normalized": false,
      "special": true
    },
    {
      "id": 1,
      "content": "<s>",
      "single_word": false,
      "lstrip": false,
      "rstrip": false,
      "normalized": false,
      "special": true
    },
    {
      "id": 2,
      "content": "</s>",
      "single_word": false,
      "lstrip": false,
      "rstrip": false,
      "normalized": false,
      "special": true
    },
    {
      "id": 3,
      "content": "<pad>",
      "single_word": false,
      "lstrip": false,
      "rstrip": false,
      "normalized": false,
      "special": true
    }
  ],
  "normalizer": null,
  "pre_tokenizer": {
    "type": "Metaspace",
    "replacement": "▁",
    "prepend_scheme": "first",
    "split": false
  },
  "post_processor": {
    "type": "TemplateProcessing",
    "single": [
      {
        "Sequence": {
          "id": "A",
          "type_id": 0
        }
      }
    ],
    "pair": [
      {
        "Sequence": {
          "id": "A",
          "type_id": 0
        }
      },
      {
        "Sequence": {
          "id": "B",
          "type_id": 1
        }
      }
    ],
    "special_tokens": {}
  },
  "decoder": {
    "type": "Sequence",
    "decoders": [
      {
        "type": "Replace",
        "pattern": {
          "String": "▁"
        },
        "content": " "
      },
      {
        "type": "ByteFallback"
      },
      {
        "type": "Fuse"
      },
      {
        "type": "Strip",
        "content": " ",
        "start": 1,
        "stop": 0
      }
    ]
  },
  "model": {
    "type": "BPE",
    "dropout": null,
    "unk_token": null,
    "continuing_subword_prefix": null,
    "end_of_word_suffix": null,
    "fuse_unk": true,
    "byte_fallback": true,
    "ignore_merges": false,
    "vocab": {
      "<unk>": 0,
      "<s>": 1,
      "</s>": 2,
      "<pad>": 3,
      "\t": 4,
      "\n": 5,
      "\r": 6,
      "!": 7,
      "\"": 8,
      "#": 9,
      "$": 10,
      "%": 11,
      "&": 12,
      "'": 13,
      "(": 14,
      ")": 15,
      "*": 16,
      "+": 17,
      ",": 18,
      "-": 19,
      ".": 20,
      "/": 21,
      "0": 22,
      "1": 23,
      "2": 24,
      "3": 25,
      "4": 26,
      "5": 27,
      "6": 28,
      "7": 29,
      "8": 30,
      "9": 31,
      ":": 32,
      ";": 33,
      "<": 34,
      "=": 35,
      ">": 36,
      "?": 37,
      "@": 38,
      "A": 39,
      "B": 40,
      "C": 41,
      "D": 42,
      "E": 43,
      "F": 44,
      "G": 45,
      "H": 46,
      "I": 47,
      "J": 48,
      "K": 49,
      "L": 50,
      "M": 51,
      "N": 52,
      "O": 53,
      "P": 54,
      "Q": 55,
      "R": 56,
      "S": 57,
      "T": 58,
      "U": 59,
      "V": 60,
      "W": 61,
      "X": 62,
      "Y": 63,
      "Z": 64,
      "[": 65,
      "\\": 66,
      "]": 67,
      "^": 68,
      "_": 69,
      "`": 70,
      "a": 71,
      "b": 72,
      "c": 73,
      "d": 74,
      "e": 75,
      "f": 76,
      "g": 77,
      "h": 78,
      "i": 79,
      "j": 80,
      "k": 81,
      "l": 82,
      "m": 83,
      "n": 84,
      "o": 85,
      "p": 86,
      "q": 87,
      "r": 88,
      "s": 89,
      "t": 90,
      "u": 91,
      "v": 92,
      "w": 93,
      "x": 94,
      "y": 95,
      "z": 96,
      "{": 97,
      "|": 98,
      "}": 99,
      "~": 100,
      "": 101,
      "": 102,
      "": 103,
      "": 104,
      "": 105,
      "¡": 106,
      "¢": 107,
      "£": 108,
      "¤": 109,
      "¥": 110,
      "§": 111,
      "©": 112,
      "«": 113,
      "¬": 114,
      "­": 115,
      "®": 116,
      "°": 117,
      "±": 118,
      "¶": 119,
      "·": 120,
      "»": 121,
      "¿": 122,
      "À": 123,
      "Á": 124,
      "Â": 125,
      "Ã": 126,
      "Ä": 127,
      "Å": 128,
      "Æ": 129,
      "Ç": 130,
      "È": 131,
      "É": 132,
      "Ê": 133,
      "Ì": 134,
      "Í": 135,
      "Î": 136,
      "Ñ": 137,
      "Ò": 138,
      "Ó": 139,
      "Ô": 140,
      "Õ": 141,
      "Ö": 142,
      "×": 143,
      "Ø": 144,
      "Ú": 145,
      "Ü": 146,
      "Þ": 147,
      "ß": 148,
      "à": 149,
      "á": 150,
      "â": 151,
      "ã": 152,
      "ä": 153,
      "å": 154,
      "æ": 155,
      "ç": 156,
      "è": 157,
      "é": 158,
      "ê": 159,
      "ë": 160,
      "ì": 161,
      "í": 162,
      "î": 163,
      "ï": 164,
      "ð": 165,
      "ñ": 166,
      "ò": 167,
      "ó": 168,
      "ô": 169,
      "õ": 170,
      "ö": 171,
      "÷": 172,
      "ø": 173,
      "ù": 174,
      "ú": 175,
      "û": 176,
      "ü": 177,
      "ý": 178,
      "þ": 179,
      "ÿ": 180,
      "Ā": 181,
      "ā": 182,
      "Ă": 183,
      "ă": 184,
      "ą": 185,
      "Ć": 186,
      "ć": 187,
      "Č": 188,
      "č": 189,
      "ď": 190,
      "Đ": 191,
      "đ": 192,
      "ē": 193,
      "ė": 194,
      "ę": 195,
      "ě": 196,
      "ğ": 197,
      "ġ": 198,
      "ħ": 199,
      "ĩ": 200,
      "ī": 201,
      "ĭ": 202,
      "İ": 203,
      "ı": 204,
      "ļ": 205,
      "ľ": 206,
      "Ł": 207,
      "ł": 208,
      "ń": 209,
      "ņ": 210,
      "ň": 211,
      "ŋ": 212,
      "Ō": 213,
      "ō": 214,
      "ŏ": 215,
      "ő": 216,
      "Œ": 217,
      "œ": 218,
      "ř": 219,
      "Ś": 220,
      "ś": 221,
      "Ş": 222,
      "ş": 223,
      "Š": 224,
      "š": 225,
      "ţ": 226,
      "ť": 227,
      "ũ": 228,
      "ū": 229,
      "ŭ": 230,
      "ů": 231,
      "ź": 232,
      "Ż": 233,
      "ż": 234,
      "Ž": 235,
      "ž": 236,
      "ƒ": 237,
      "ơ": 238,
      "ư": 239,
      "ǎ": 240,
      "ǐ": 241,
      "ǒ": 242,
      "ǔ": 243,
      "Ș": 244,
      "ș": 245,
      "ț": 246,
      "ɐ": 247,
      "ɑ": 248,
      "ɒ": 249,
      "ɔ": 250,
      "ɕ": 251,
      "ə": 252,
      "ɛ": 253,
      "ɡ": 254,
      "ɣ": 255,
      "ɨ": 256,
      "ɪ": 257,
      "ɬ": 258,
      "ɯ": 259,
      "ɲ": 260,
      "ɾ": 261,
      "ʁ": 262,
      "ʃ": 263,
      "ʉ": 264,
      "ʊ": 265,
      "ʌ": 266,
      "ʒ": 267,
      "ʔ": 268,
      "ʻ": 269,
      "ʼ": 270,
      "ʾ": 271,
      "ʿ": 272,
      "ˆ": 273,
      "ˈ": 274,
      "ˌ": 275,
      "ː": 276,
      "˥": 277,
      "˧": 278,
      "˩": 279,
      "̀": 280,
      "́": 281,
      "̃": 282,
      "̄": 283,
      "̈": 284,
      "̊": 285,
      "̣": 286,
      "̧": 287,
      "̪": 288,
      "̱": 289,
      "̶": 290,
      "͡": 291,
      "Α": 292,
      "Β": 293,
      "Γ": 294,
      "Δ": 295,
      "Ε": 296,
      "Η": 297,
      "Θ": 298,
      "Ι": 299,
      "Κ": 300,
      "Λ": 301,
      "Μ": 302,
      "Ν": 303,
      "Ο": 304,
      "Π": 305,
      "Ρ": 306,
      "Σ": 307,
      "Τ": 308,
      "Υ": 309,
      "Φ": 310,
      "Χ": 311,
      "Ω": 312,
      "ά": 313,
      "έ": 314,
      "ή": 315,
      "ί": 316,
      "α": 317,
      "β": 318,
      "γ": 319,
      "δ": 320,
      "ε": 321,
      "ζ": 322,
      "η": 323,
      "θ": 324,
      "ι": 325,
      "κ": 326,
      "λ": 327,
      "μ": 328,
      "ν": 329,
      "ξ": 330,
      "ο": 331,
      "π": 332,
      "ρ": 333,
      "ς": 334,
      "σ": 335,
      "τ": 336,
      "υ": 337,
      "φ": 338,
      "χ": 339,
      "ψ": 340,
      "ω": 341,
      "ό": 342,
      "ύ": 343,
      "ώ": 344,
      "А": 345,
      "Б": 346,
      "В": 347,
      "Г": 348,
      "Д": 349,
      "Е": 350,
      "Ж": 351,
      "З": 352,
      "И": 353,
      "К": 354,
      "Л": 355,
      "М": 356,
      "Н": 357,
      "О": 358,
      "П": 359,
      "Р": 360,
      "С": 361,
      "Т": 362,
      "У": 363,
      "Ф": 364,
      "Х": 365,
      "Ц": 366,
      "Ч": 367,
      "Ш": 368,
      "Э": 369,
      "Ю": 370,
      "Я": 371,
      "а": 372,
      "б": 373,
      "в": 374,
      "г": 375,
      "д": 376,
      "е": 377,
      "ж": 378,
      "з": 379,
      "и": 380,
      "й": 381,
      "к": 382,
      "л": 383,
      "м": 384,
      "н": 385,
      "о": 386,
      "п": 387,
      "р": 388,
      "с": 389,
      "т": 390,
      "у": 391,
      "ф": 392,
      "х": 393,
      "ц": 394,
      "ч": 395,
      "ш": 396,
      "щ": 397,
      "ъ": 398,
      "ы": 399,
      "ь": 400,
      "э": 401,
      "ю": 402,
      "я": 403,
      "ё": 404,
      "є": 405,
      "ѕ": 406,
      "і": 407,
      "ї": 408,
      "ј": 409,
      "ћ": 410,
      "ә": 411,
      "ա": 412,
      "ե": 413,
      "ի": 414,
      "կ": 415,
      "յ": 416,
      "ն": 417,
      "ո": 418,
      "ր": 419,
      "ւ": 420,
      "ְ": 421,
      "ִ": 422,
      "ֵ": 423,
      "ֶ": 424,
      "ַ": 425,
      "ָ": 426,
      "ֹ": 427,
      "ּ": 428,
      "ׁ": 429,
      "א": 430,
      "ב": 431,
      "ג": 432,
      "ד": 433,
      "ה": 434,
      "ו": 435,
      "ז": 436,
      "ח": 437,
      "ט": 438,
      "י": 439,
      "ך": 440,
      "כ": 441,
      "ל": 442,
      "ם": 443,
      "מ": 444,
      "ן": 445,
      "נ": 446,
      "ס": 447,
      "ע": 448,
      "פ": 449,
      "צ": 450,
      "ק": 451,
      "ר": 452,
      "ש": 453,
      "ת": 454,
      "ء": 455,
      "أ": 456,
      "إ": 457,
      "ئ": 458,
      "ا": 459,
      "ب": 460,
      "ة": 461,
      "ت": 462,
      "ث": 463,
      "ج": 464,
      "ح": 465,
      "خ": 466,
      "د": 467,
      "ر": 468,
      "ز": 469,
      "س": 470,
      "ش": 471,
      "ص": 472,
      "ض": 473,
      "ط": 474,
      "ع": 475,
      "غ": 476,
      "ف": 477,
      "ق": 478,
      "ك": 479,
      "ل": 480,
      "م": 481,
      "ن": 482,
      "ه": 483,
      "و": 484,
      "ى": 485,
      "ي": 486,
      "َ": 487,
      "ُ": 488,
      "ِ": 489,
      "ّ": 490,
      "ْ": 491,
      "پ": 492,
      "ک": 493,
      "گ": 494,
      "ی": 495,
      "ं": 496,
      "अ": 497,
      "क": 498,
      "ग": 499,
      "च": 500,
      "ज": 501,
      "त": 502,
      "द": 503,
      "न": 504,
      "प": 505,
      "ब": 506,
      "भ": 507,
      "म": 508,
      "य": 509,
      "र": 510,
      "ल": 511,
      "व": 512,
      "स": 513,
      "ह": 514,
      "ा": 515,
      "ि": 516,
      "ी": 517,
      "ु": 518,
      "े": 519,
      "ो": 520,
      "्": 521,
      "ত": 522,
      "ন": 523,
      "ব": 524,
      "র": 525,
      "ল": 526,
      "া": 527,
      "ি": 528,
      "ে": 529,
      "্": 530,
      "ம": 531,
      "்": 532,
      "ก": 533,
      "ค": 534,
      "ง": 535,
      "ช": 536,
      "ด": 537,
      "ต": 538,
      "ท": 539,
      "น": 540,
      "บ": 541,
      "พ": 542,
      "ม": 543,
      "ย": 544,
      "ร": 545,
      "ล": 546,
      "ว": 547,
      "ส": 548,
      "ห": 549,
      "อ": 550,
      "ะ": 551,
      "ั": 552,
      "า": 553,
      "ิ": 554,
      "ี": 555,
      "ุ": 556,
      "เ": 557,
      "ไ": 558,
      "่": 559,
      "้": 560,
      "์": 561,
      "་": 562,
      "ာ": 563,
      "း": 564,
      "်": 565,
      "ა": 566,
      "ბ": 567,
      "დ": 568,
      "ე": 569,
      "ვ": 570,
      "თ": 571,
      "ი": 572,
      "ლ": 573,
      "მ": 574,
      "ნ": 575,
      "ო": 576,
      "რ": 577,
      "ს": 578,
      "უ": 579,
      "ᅠ": 580,
      "រ": 581,
      "ា": 582,
      "្": 583,
      "ḍ": 584,
      "Ḥ": 585,
      "ḥ": 586,
      "ḳ": 587,
      "ṃ": 588,
      "ṅ": 589,
      "ṇ": 590,
      "ṛ": 591,
      "ṣ": 592,
      "ṭ": 593,
      "ẓ": 594,
      "ạ": 595,
      "ả": 596,
      "ấ": 597,
      "ẽ": 598,
      "ế": 599,
      "ễ": 600,
      "ệ": 601,
      "ị": 602,
      "ọ": 603,
      "ộ": 604,
      "ἀ": 605,
      "Ἀ": 606,
      "ἐ": 607,
      "ὐ": 608,
      "ὶ": 609,
      "ῖ": 610,
      "ῦ": 611,
      "ῶ": 612,
      "​": 613,
      "‌": 614,
      "‍": 615,
      "‎": 616,
      "‏": 617,
      "‐": 618,
      "‒": 619,
      "–": 620,
      "—": 621,
      "―": 622,
      "‘": 623,
      "’": 624,
      "“": 625,
      "”": 626,
      "„": 627,
      "†": 628,
      "‡": 629,
      "•": 630,
      "‧": 631,
      "‪": 632,
      "‬": 633,
      "‰": 634,
      "′": 635,
      "‹": 636,
      "›": 637,
      "⁄": 638,
      "⁠": 639,
      "⁣": 640,
      "€": 641,
      "₹": 642,
      "←": 643,
      "↑": 644,
      "→": 645,
      "↓": 646,
      "↔": 647,
      "⇆": 648,
      "⇒": 649,
      "∀": 650,
      "∆": 651,
      "∈": 652,
      "∑": 653,
      "−": 654,
      "∗": 655,
      "√": 656,
      "∞": 657,
      "∧": 658,
      "∨": 659,
      "∴": 660,
      "≈": 661,
      "≠": 662,
      "≡": 663,
      "≤": 664,
      "≥": 665,
      "⋅": 666,
      "⋆": 667,
      "─": 668,
      "━": 669,
      "│": 670,
      "└": 671,
      "├": 672,
      "═": 673,
      "║": 674,
      "▁": 675,
      "▄": 676,
      "█": 677,
      "░": 678,
      "■": 679,
      "▪": 680,
      "▲": 681,
      "▶": 682,
      "▷": 683,
      "►": 684,
      "▼": 685,
      "◊": 686,
      "●": 687,
      "★": 688,
      "☆": 689,
      "☉": 690,
      "☎": 691,
      "♀": 692,
      "♂": 693,
      "♠": 694,
      "♡": 695,
      "♣": 696,
      "♥": 697,
      "♦": 698,
      "♪": 699,
      "♫": 700,
      "♭": 701,
      "♯": 702,
      "⚠": 703,
      "⚫": 704,
      "✅": 705,
      "✓": 706,
      "✔": 707,
      "✨": 708,
      "✿": 709,
      "❌": 710,
      "❖": 711,
      "❤": 712,
      "❯": 713,
      "➜": 714,
      "➡": 715,
      "➢": 716,
      "⟨": 717,
      "⟩": 718,
      "⠀": 719,
      "⭐": 720,
      "、": 721,
      "。": 722,
      "《": 723,
      "》": 724,
      "「": 725,
      "」": 726,
      "『": 727,
      "』": 728,
      "【": 729,
      "】": 730,
      "〜": 731,
      "あ": 732,
      "い": 733,
      "う": 734,
      "え": 735,
      "お": 736,
      "か": 737,
      "が": 738,
      "き": 739,
      "く": 740,
      "け": 741,
      "こ": 742,
      "さ": 743,
      "し": 744,
      "す": 745,
      "た": 746,
      "だ": 747,
      "ち": 748,
      "っ": 749,
      "つ": 750,
      "て": 751,
      "で": 752,
      "と": 753,
      "な": 754,
      "に": 755,
      "の": 756,
      "は": 757,
      "ま": 758,
      "み": 759,
      "め": 760,
      "も": 761,
      "よ": 762,
      "ら": 763,
      "り": 764,
      "る": 765,
      "れ": 766,
      "わ": 767,
      "を": 768,
      "ん": 769,
      "ァ": 770,
      "ア": 771,
      "ィ": 772,
      "イ": 773,
      "ウ": 774,
      "ェ": 775,
      "エ": 776,
      "オ": 777,
      "カ": 778,
      "ガ": 779,
      "キ": 780,
      "ク": 781,
      "グ": 782,
      "ケ": 783,
      "コ": 784,
      "サ": 785,
      "シ": 786,
      "ジ": 787,
      "ス": 788,
      "ズ": 789,
      "セ": 790,
      "タ": 791,
      "ダ": 792,
      "チ": 793,
      "ッ": 794,
      "ツ": 795,
      "テ": 796,
      "デ": 797,
      "ト": 798,
      "ド": 799,
      "ナ": 800,
      "ニ": 801,
      "ネ": 802,
      "ノ": 803,
      "ハ": 804,
      "バ": 805,
      "パ": 806,
      "ビ": 807,
      "フ": 808,
      "ブ": 809,
      "プ": 810,
      "ボ": 811,
      "マ": 812,
      "ミ": 813,
      "ム": 814,
      "メ": 815,
      "モ": 816,
      "ャ": 817,
      "ュ": 818,
      "ョ": 819,
      "ラ": 820,
      "リ": 821,
      "ル": 822,
      "レ": 823,
      "ロ": 824,
      "ン": 825,
      "・": 826,
      "ー": 827,
      "一": 828,
      "三": 829,
      "上": 830,
      "不": 831,
      "世": 832,
      "中": 833,
      "事": 834,
      "二": 835,
      "五": 836,
      "井": 837,
      "京": 838,
      "人": 839,
      "会": 840,
      "体": 841,
      "元": 842,
      "光": 843,
      "八": 844,
      "公": 845,
      "出": 846,
      "北": 847,
      "南": 848,
      "原": 849,
      "台": 850,
      "司": 851,
      "名": 852,
      "和": 853,
      "国": 854,
      "國": 855,
      "地": 856,
      "城": 857,
      "士": 858,
      "外": 859,
      "大": 860,
      "天": 861,
      "太": 862,
      "女": 863,
      "子": 864,
      "学": 865,
      "安": 866,
      "家": 867,
      "小": 868,
      "山": 869,
      "島": 870,
      "川": 871,
      "州": 872,
      "市": 873,
      "平": 874,
      "年": 875,
      "式": 876,
      "心": 877,
      "愛": 878,
      "我": 879,
      "戦": 880,
      "拳": 881,
      "教": 882,
      "文": 883,
      "新": 884,
      "方": 885,
      "日": 886,
      "明": 887,
      "星": 888,
      "月": 889,
      "木": 890,
      "本": 891,
      "李": 892,
      "村": 893,
      "東": 894,
      "林": 895,
      "森": 896,
      "武": 897,
      "氏": 898,
      "民": 899,
      "水": 900,
      "江": 901,
      "法": 902,
      "海": 903,
      "灣": 904,
      "版": 905,
      "王": 906,
      "生": 907,
      "田": 908,
      "白": 909,
      "的": 910,
      "真": 911,
      "石": 912,
      "社": 913,
      "神": 914,
      "空": 915,
      "简": 916,
      "繁": 917,
      "美": 918,
      "者": 919,
      "花": 920,
      "藤": 921,
      "行": 922,
      "西": 923,
      "語": 924,
      "语": 925,
      "通": 926,
      "道": 927,
      "郎": 928,
      "郡": 929,
      "部": 930,
      "野": 931,
      "金": 932,
      "長": 933,
      "集": 934,
      "體": 935,
      "高": 936,
      "ꞌ": 937,
      "가": 938,
      "국": 939,
      "기": 940,
      "김": 941,
      "나": 942,
      "다": 943,
      "대": 944,
      "리": 945,
      "민": 946,
      "사": 947,
      "서": 948,
      "성": 949,
      "수": 950,
      "스": 951,
      "시": 952,
      "아": 953,
      "어": 954,
      "의": 955,
      "이": 956,
      "인": 957,
      "정": 958,
      "주": 959,
      "지": 960,
      "천": 961,
      "하": 962,
      "한": 963,
      "": 964,
      "": 965,
      "": 966,
      "": 967,
      "": 968,
      "": 969,
      "": 970,
      "": 971,
      "": 972,
      "": 973,
      "": 974,
      "": 975,
      "": 976,
      "": 977,
      "": 978,
      "": 979,
      "️": 980,
      "﻿": 981,
      "￼": 982,
      "�": 983,
      "🇧": 984,
      "🇷": 985,
      "🏻": 986,
      "🏼": 987,
      "👇": 988,
      "👉": 989,
      "👍": 990,
      "👏": 991,
      "🔥": 992,
      "😀": 993,
      "😂": 994,
      "😉": 995,
      "😊": 996,
      "😍": 997,
      "😘": 998,
      "😛": 999,
      "🙁": 1000,
      "🙂": 1001,
      "🙏": 1002,
      "🥇": 1003,
      "▁d": 1004,
      "▁e": 1005,
      "▁a": 1006,
      "ra": 1007,
      "▁p": 1008,
      "▁de": 1009,
      "os": 1010,
      "▁c": 1011,
      "nt": 1012,
      "re": 1013,
      "er": 1014,
      "▁s": 1015,
      "as": 1016,
      "or": 1017,
      "es": 1018,
      "ad": 1019,
      "is": 1020,
      "in": 1021,
      "qu": 1022,
      "▁co": 1023,
      "ar": 1024,
      "▁m": 1025,
      "▁o": 1026,
      "ão": 1027,
      "▁n": 1028,
      "al": 1029,
      "▁t": 1030,
      "ic": 1031,
      "ent": 1032,
      "▁f": 1033,
      "ia": 1034,
      "ro": 1035,
      "um": 1036,
      "nd": 1037,
      "id": 1038,
      "▁qu": 1039,
      "em": 1040,
      "it": 1041,
      "st": 1042,
      "▁com": 1043,
      "▁um": 1044,
      "el": 1045,
      "am": 1046,
      "io": 1047,
      "▁que": 1048,
      "▁do": 1049,
      "▁v": 1050,
      "en": 1051,
      "ara": 1052,
      "im": 1053,
      "▁em": 1054,
      "ção": 1055,
      "an": 1056,
      "▁re": 1057,
      "▁se": 1058,
      ".\n": 1059,
      "▁da": 1060,
      "il": 1061,
      "▁C": 1062,
      "▁A": 1063,
      "▁l": 1064,
      "at": 1065,
      "co": 1066,
      "▁S": 1067,
      "▁para": 1068,
      "ado": 1069,
      "iv": 1070,
      "▁(": 1071,
      "▁no": 1072,
      "▁P": 1073,
      "res": 1074,
      "ul": 1075,
      "ta": 1076,
      "ndo": 1077,
      "ol": 1078,
      "ou": 1079,
      "▁b": 1080,
      "on": 1081,
      "▁M": 1082,
      "▁1": 1083,
      "▁E": 1084,
      "od": 1085,
      "▁g": 1086,
      "ec": 1087,
      "ut": 1088,
      "ei": 1089,
      "▁est": 1090,
      "ente": 1091,
      "ri": 1092,
      "us": 1093,
      "▁uma": 1094,
      "et": 1095,
      "▁é": 1096,
      "oc": 1097,
      "▁in": 1098,
      "nc": 1099,
      "o,": 1100,
      "▁2": 1101,
      "ais": 1102,
      "gu": 1103,
      "om": 1104,
      "ist": 1105,
      "▁B": 1106,
      "ha": 1107,
      "le": 1108,
      "▁pro": 1109,
      "\n\n": 1110,
      "▁su": 1111,
      "ação": 1112,
      ".\n\n": 1113,
      "▁na": 1114,
      "idad": 1115,
      "▁es": 1116,
      "se": 1117,
      "▁por": 1118,
      "▁D": 1119,
      "ant": 1120,
      "ões": 1121,
      "ig": 1122,
      "▁R": 1123,
      "▁as": 1124,
      "▁con": 1125,
      "a,": 1126,
      "iz": 1127,
      "▁T": 1128,
      "ion": 1129,
      "ir": 1130,
      "de": 1131,
      "▁os": 1132,
      "te": 1133,
      "▁F": 1134,
      "so": 1135,
      "do": 1136,
      "ho": 1137,
      "▁O": 1138,
      "ac": 1139,
      "ada": 1140,
      "▁ex": 1141,
      "▁L": 1142,
      "▁fo": 1143,
      "▁N": 1144,
      "ica": 1145,
      "un": 1146,
      "ento": 1147,
      "nte": 1148,
      "idade": 1149,
      "▁\"": 1150,
      "▁j": 1151,
      "▁|": 1152,
      "era": 1153,
      "ura": 1154,
      "▁al": 1155,
      "▁I": 1156,
      "ando": 1157,
      "▁20": 1158,
      "▁como": 1159,
      "▁não": 1160,
      "ções": 1161,
      "po": 1162,
      "▁G": 1163,
      "to": 1164,
      "ag": 1165,
      "ados": 1166,
      "ve": 1167,
      "▁ap": 1168,
      "▁des": 1169,
      "ras": 1170,
      "ed": 1171,
      "▁h": 1172,
      "▁at": 1173,
      "if": 1174,
      "▁-": 1175,
      "▁pr": 1176,
      "ito": 1177,
      "▁ser": 1178,
      "av": 1179,
      "▁J": 1180,
      "▁pel": 1181,
      "ab": 1182,
      "ma": 1183,
      "▁mais": 1184,
      "og": 1185,
      "▁<": 1186,
      "▁dos": 1187,
      "ido": 1188,
      "ur": 1189,
      "▁pod": 1190,
      "ém": 1191,
      "ip": 1192,
      "ob": 1193,
      "rio": 1194,
      "▁foi": 1195,
      "da": 1196,
      "ce": 1197,
      "▁en": 1198,
      "ria": 1199,
      "▁per": 1200,
      "▁cont": 1201,
      "ram": 1202,
      "int": 1203,
      "▁19": 1204,
      "▁V": 1205,
      "▁ou": 1206,
      "▁H": 1207,
      "he": 1208,
      "ros": 1209,
      "▁an": 1210,
      "▁tra": 1211,
      "pl": 1212,
      "▁ao": 1213,
      "ai": 1214,
      "▁ent": 1215,
      "▁mu": 1216,
      "ncia": 1217,
      "art": 1218,
      "ens": 1219,
      "ov": 1220,
      "ico": 1221,
      "nde": 1222,
      "est": 1223,
      "▁sua": 1224,
      "▁tem": 1225,
      "la": 1226,
      "ern": 1227,
      "▁U": 1228,
      "os,": 1229,
      "ial": 1230,
      "ça": 1231,
      "▁||": 1232,
      "▁à": 1233,
      "▁for": 1234,
      "▁seu": 1235,
      "ida": 1236,
      "ru": 1237,
      "▁ar": 1238,
      "eira": 1239,
      "▁im": 1240,
      "ap": 1241,
      "ias": 1242,
      "eiro": 1243,
      "▁pre": 1244,
      "bl": 1245,
      "▁=": 1246,
      "ocê": 1247,
      "ers": 1248,
      "▁esp": 1249,
      "mente": 1250,
      "▁ac": 1251,
      "ot": 1252,
      "ing": 1253,
      "00": 1254,
      "pre": 1255,
      "..": 1256,
      "▁\n": 1257,
      "amb": 1258,
      "eg": 1259,
      "▁</": 1260,
      "▁ter": 1261,
      "ess": 1262,
      "mo": 1263,
      "▁ele": 1264,
      "ass": 1265,
      "por": 1266,
      "vel": 1267,
      "▁res": 1268,
      "ns": 1269,
      "az": 1270,
      "▁das": 1271,
      "ência": 1272,
      "as,": 1273,
      "▁us": 1274,
      "esso": 1275,
      ";\n": 1276,
      "▁dis": 1277,
      "amente": 1278,
      "ez": 1279,
      "ora": 1280,
      "ere": 1281,
      "p>": 1282,
      "▁&": 1283,
      "▁pos": 1284,
      "me": 1285,
      "▁out": 1286,
      "▁comp": 1287,
      "▁sob": 1288,
      "▁segu": 1289,
      "▁201": 1290,
      "ista": 1291,
      "pe": 1292,
      "ambém": 1293,
      "▁nos": 1294,
      "que": 1295,
      "for": 1296,
      "du": 1297,
      "▁pode": 1298,
      "▁você": 1299,
      "íc": 1300,
      "are": 1301,
      "ud": 1302,
      "amento": 1303,
      "ário": 1304,
      "▁sem": 1305,
      "▁tod": 1306,
      "▁3": 1307,
      ")\n": 1308,
      "▁mas": 1309,
      "pres": 1310,
      "▁int": 1311,
      "adas": 1312,
      "▁W": 1313,
      "aliz": 1314,
      "▁po": 1315,
      "ib": 1316,
      "▁am": 1317,
      "▁também": 1318,
      "▁el": 1319,
      "orn": 1320,
      "lu": 1321,
      "▁sobre": 1322,
      "▁me": 1323,
      "e,": 1324,
      "▁está": 1325,
      "ult": 1326,
      "▁são": 1327,
      "inha": 1328,
      "▁ob": 1329,
      "and": 1330,
      "cont": 1331,
      "ári": 1332,
      "ios": 1333,
      "pos": 1334,
      "▁nov": 1335,
      "ire": 1336,
      "imento": 1337,
      "▁Est": 1338,
      "ific": 1339,
      "▁gra": 1340,
      "ional": 1341,
      "ina": 1342,
      "ivo": 1343,
      "▁K": 1344,
      "▁ab": 1345,
      "ição": 1346,
      "ntes": 1347,
      "ador": 1348,
      "),": 1349,
      "ira": 1350,
      "▁ass": 1351,
      "sa": 1352,
      "emb": 1353,
      "code": 1354,
      "t;": 1355,
      "▁pelo": 1356,
      "▁pela": 1357,
      "ch": 1358,
      "▁cor": 1359,
      "▁200": 1360,
      "entos": 1361,
      "lo": 1362,
      "ter": 1363,
      "per": 1364,
      "▁entre": 1365,
      "Qu": 1366,
      "ev": 1367,
      "ran": 1368,
      "code>": 1369,
      "ço": 1370,
      "-se": 1371,
      "▁mes": 1372,
      "▁cl": 1373,
      "▁á": 1374,
      "eb": 1375,
      "▁cons": 1376,
      "a.": 1377,
      "▁prim": 1378,
      "iu": 1379,
      "▁or": 1380,
      "▁faz": 1381,
      "ulo": 1382,
      "\nE": 1383,
      "▁cas": 1384,
      "go": 1385,
      "▁part": 1386,
      "▁Al": 1387,
      "anto": 1388,
      "ít": 1389,
      "bal": 1390,
      "icos": 1391,
      "icas": 1392,
      "ava": 1393,
      "ações": 1394,
      "▁te": 1395,
      "ert": 1396,
      "gra": 1397,
      "iss": 1398,
      "col": 1399,
      "es,": 1400,
      "ost": 1401,
      "idos": 1402,
      "▁ad": 1403,
      "20": 1404,
      "rasil": 1405,
      "\",": 1406,
      "inh": 1407,
      "rit": 1408,
      "▁of": 1409,
      "tu": 1410,
      "ia,": 1411,
      "aram": 1412,
      "▁ch": 1413,
      "éc": 1414,
      "▁par": 1415,
      "agem": 1416,
      "ós": 1417,
      "eu": 1418,
      "▁ver": 1419,
      "ja": 1420,
      "erc": 1421,
      "▁4": 1422,
      "ian": 1423,
      "▁Com": 1424,
      "und": 1425,
      "--": 1426,
      "▁fil": 1427,
      "▁qual": 1428,
      "▁car": 1429,
      "ade": 1430,
      "▁Un": 1431,
      "ust": 1432,
      "\n|": 1433,
      "ie": 1434,
      "indo": 1435,
      "idades": 1436,
      "hec": 1437,
      "ês": 1438,
      "rar": 1439,
      "unc": 1440,
      "inc": 1441,
      "19": 1442,
      "jet": 1443,
      "end": 1444,
      "▁reg": 1445,
      "ver": 1446,
      "enc": 1447,
      "▁esc": 1448,
      "▁mar": 1449,
      "\n\n<": 1450,
      "itu": 1451,
      "entes": 1452,
      "inal": 1453,
      "▁pesso": 1454,
      "▁inc": 1455,
      "▁seus": 1456,
      "▁cam": 1457,
      "ato": 1458,
      "ite": 1459,
      "▁ag": 1460,
      "aria": 1461,
      "vol": 1462,
      "▁nas": 1463,
      "▁trabal": 1464,
      "▁pres": 1465,
      "aix": 1466,
      "\nA": 1467,
      "ino": 1468,
      "con": 1469,
      "rá": 1470,
      "ero": 1471,
      "▁vez": 1472,
      "anç": 1473,
      "inte": 1474,
      "▁pass": 1475,
      "ss": 1476,
      "igo": 1477,
      "itos": 1478,
      "▁–": 1479,
      "ários": 1480,
      "▁dest": 1481,
      "▁Em": 1482,
      "ix": 1483,
      "▁ro": 1484,
      "rat": 1485,
      "ória": 1486,
      "▁5": 1487,
      "▁rel": 1488,
      "anh": 1489,
      "▁dire": 1490,
      "com": 1491,
      "enas": 1492,
      "▁muito": 1493,
      "▁rec": 1494,
      "▁até": 1495,
      "▁ha": 1496,
      "ita": 1497,
      "min": 1498,
      "▁mod": 1499,
      "ont": 1500,
      "▁encont": 1501,
      "▁col": 1502,
      "▁eu": 1503,
      "▁is": 1504,
      "▁Por": 1505,
      "ase": 1506,
      "ect": 1507,
      "amos": 1508,
      "ilh": 1509,
      "▁poss": 1510,
      "▁quando": 1511,
      "erv": 1512,
      "ís": 1513,
      "▁jog": 1514,
      "▁</p>": 1515,
      "▁era": 1516,
      "ord": 1517,
      "pera": 1518,
      "ível": 1519,
      "port": 1520,
      "inda": 1521,
      "▁lt;": 1522,
      "unt": 1523,
      "elh": 1524,
      "iva": 1525,
      "ante": 1526,
      "fer": 1527,
      "ard": 1528,
      "ub": 1529,
      "ema": 1530,
      "▁dia": 1531,
      "almente": 1532,
      ".\nA": 1533,
      "Com": 1534,
      "▁Con": 1535,
      "▁pl": 1536,
      "▁\n\n": 1537,
      "▁'": 1538,
      "cis": 1539,
      "ivers": 1540,
      "▁lu": 1541,
      "▁Es": 1542,
      "▁ra": 1543,
      "adores": 1544,
      "embro": 1545,
      "fe": 1546,
      "gum": 1547,
      "▁ext": 1548,
      "ima": 1549,
      "ôn": 1550,
      "▁De": 1551,
      "▁ú": 1552,
      "este": 1553,
      "os.": 1554,
      "▁loc": 1555,
      "▁proc": 1556,
      "▁tempo": 1557,
      "▁fal": 1558,
      "▁0": 1559,
      "ign": 1560,
      "▁Brasil": 1561,
      "▁{": 1562,
      "ião": 1563,
      "▁id": 1564,
      ").": 1565,
      "▁já": 1566,
      ".\n\nE": 1567,
      "op": 1568,
      "▁suas": 1569,
      "▁Mar": 1570,
      "▁onde": 1571,
      "▁conc": 1572,
      "istas": 1573,
      "▁Ch": 1574,
      "ét": 1575,
      "\nP": 1576,
      "ano": 1577,
      "▁18": 1578,
      "▁espec": 1579,
      "idas": 1580,
      "▁val": 1581,
      "ração": 1582,
      "▁pró": 1583,
      "▁aut": 1584,
      "éd": 1585,
      "ior": 1586,
      "▁Re": 1587,
      "▁pol": 1588,
      "va": 1589,
      "ng": 1590,
      "▁dif": 1591,
      "▁mesmo": 1592,
      "ast": 1593,
      "▁Ar": 1594,
      "vi": 1595,
      "▁foram": 1596,
      "pre>": 1597,
      "▁form": 1598,
      "ado,": 1599,
      "▁pa": 1600,
      "▁conhec": 1601,
      "rig": 1602,
      "▁Se": 1603,
      "enh": 1604,
      "\nO": 1605,
      "up": 1606,
      "▁man": 1607,
      "veis": 1608,
      "ca": 1609,
      "rim": 1610,
      ".E": 1611,
      "rib": 1612,
      "▁cap": 1613,
      "▁ant": 1614,
      "ral": 1615,
      "▁isso": 1616,
      "son": 1617,
      "orre": 1618,
      "ceb": 1619,
      "▁ainda": 1620,
      ");\n": 1621,
      "▁poder": 1622,
      "ela": 1623,
      "▁trans": 1624,
      "rad": 1625,
      "ín": 1626,
      "ão,": 1627,
      "ód": 1628,
      "ável": 1629,
      "▁hist": 1630,
      "elo": 1631,
      "▁Pa": 1632,
      "▁Qu": 1633,
      "▁ind": 1634,
      "pois": 1635,
      "form": 1636,
      "ular": 1637,
      "▁sol": 1638,
      "▁aqu": 1639,
      "ér": 1640,
      "▁cidade": 1641,
      "▁fe": 1642,
      "quer": 1643,
      "▁const": 1644,
      "gar": 1645,
      "▁anos": 1646,
      "unic": 1647,
      "iam": 1648,
      "úbl": 1649,
      "▁torn": 1650,
      "▁conf": 1651,
      "▁princ": 1652,
      "át": 1653,
      "iais": 1654,
      "▁[": 1655,
      "rem": 1656,
      "▁apenas": 1657,
      ".\n\nA": 1658,
      "ncias": 1659,
      "ate": 1660,
      "▁prof": 1661,
      "anc": 1662,
      "▁fazer": 1663,
      "▁todos": 1664,
      "ga": 1665,
      "▁atu": 1666,
      "o.": 1667,
      "▁este": 1668,
      "eral": 1669,
      "▁ho": 1670,
      "orte": 1671,
      "al,": 1672,
      "▁art": 1673,
      "pon": 1674,
      "▁6": 1675,
      "aior": 1676,
      "urante": 1677,
      "s,": 1678,
      "▁aos": 1679,
      "▁bem": 1680,
      "▁sub": 1681,
      "\n\n<p>": 1682,
      "▁Pro": 1683,
      "of": 1684,
      "ana": 1685,
      "▁r": 1686,
      "▁ela": 1687,
      "▁equ": 1688,
      "eiros": 1689,
      "íl": 1690,
      "\nM": 1691,
      "ne": 1692,
      "▁podem": 1693,
      "nda": 1694,
      "▁che": 1695,
      "▁199": 1696,
      "▁<code>": 1697,
      "itar": 1698,
      "ine": 1699,
      "▁inst": 1700,
      "ubl": 1701,
      "▁algum": 1702,
      "▁ca": 1703,
      ".\nO": 1704,
      "▁In": 1705,
      "igu": 1706,
      "uro": 1707,
      "antes": 1708,
      "eç": 1709,
      "▁sa": 1710,
      "▁—": 1711,
      "▁maior": 1712,
      "rada": 1713,
      "imo": 1714,
      "...": 1715,
      "▁ev": 1716,
      "▁contra": 1717,
      "▁sab": 1718,
      "ór": 1719,
      "▁nome": 1720,
      "▁empres": 1721,
      "pt": 1722,
      "les": 1723,
      "iliz": 1724,
      "êm": 1725,
      "▁às": 1726,
      "ivos": 1727,
      "as.": 1728,
      "elho": 1729,
      "ay": 1730,
      "ele": 1731,
      "és": 1732,
      "▁def": 1733,
      "▁outros": 1734,
      "quanto": 1735,
      "man": 1736,
      "▁vis": 1737,
      "▁oc": 1738,
      "elhor": 1739,
      "//": 1740,
      "▁`": 1741,
      "▁men": 1742,
      "▁vol": 1743,
      "▁af": 1744,
      "▁ret": 1745,
      "▁tr": 1746,
      "erra": 1747,
      "overn": 1748,
      "▁princip": 1749,
      "▁aj": 1750,
      "▁parte": 1751,
      "▁cada": 1752,
      "rav": 1753,
      "entar": 1754,
      "▁difere": 1755,
      "▁lev": 1756,
      "▁cria": 1757,
      "ências": 1758,
      "\nS": 1759,
      "▁precis": 1760,
      "▁du": 1761,
      "▁inv": 1762,
      "lic": 1763,
      "▁São": 1764,
      "▁ins": 1765,
      "▁Os": 1766,
      "ht": 1767,
      "▁fic": 1768,
      "udo": 1769,
      "▁cham": 1770,
      "enho": 1771,
      "empl": 1772,
      "th": 1773,
      "ex": 1774,
      "ús": 1775,
      "▁No": 1776,
      "ilidade": 1777,
      "iente": 1778,
      "▁7": 1779,
      "esta": 1780,
      "cl": 1781,
      "▁10": 1782,
      "▁pessoas": 1783,
      "▁mundo": 1784,
      "via": 1785,
      "▁sent": 1786,
      "iar": 1787,
      "▁inte": 1788,
      "ric": 1789,
      "porta": 1790,
      "▁dois": 1791,
      "rou": 1792,
      "ient": 1793,
      "íd": 1794,
      "▁mat": 1795,
      "▁Am": 1796,
      "\nC": 1797,
      "▁realiz": 1798,
      "▁8": 1799,
      "mos": 1800,
      "▁av": 1801,
      "e.": 1802,
      "i,": 1803,
      "▁ma": 1804,
      "dut": 1805,
      "forma": 1806,
      "▁grande": 1807,
      "▁deix": 1808,
      "▁St": 1809,
      "inho": 1810,
      "inu": 1811,
      "lt": 1812,
      "ecess": 1813,
      "ula": 1814,
      "duz": 1815,
      "ok": 1816,
      "No": 1817,
      "éri": 1818,
      "endo": 1819,
      "fic": 1820,
      "▁un": 1821,
      "úm": 1822,
      "▁soc": 1823,
      "▁{\n": 1824,
      "▁receb": 1825,
      "▁estão": 1826,
      "erg": 1827,
      "ál": 1828,
      "ret": 1829,
      "envol": 1830,
      "▁primeiro": 1831,
      "acional": 1832,
      ".\nE": 1833,
      "▁vida": 1834,
      "ew": 1835,
      "▁estava": 1836,
      "▁há": 1837,
      "ublic": 1838,
      "10": 1839,
      "▁gt;": 1840,
      "▁sim": 1841,
      "▁X": 1842,
      "uc": 1843,
      "▁9": 1844,
      ".A": 1845,
      "▁depois": 1846,
      "▁sendo": 1847,
      "▁ir": 1848,
      "▁apres": 1849,
      "▁partic": 1850,
      "segu": 1851,
      "▁final": 1852,
      "▁melhor": 1853,
      "ças": 1854,
      "▁algu": 1855,
      "anha": 1856,
      "▁eles": 1857,
      "▁dados": 1858,
      "▁hom": 1859,
      "▁med": 1860,
      "▁pes": 1861,
      "▁liv": 1862,
      "▁div": 1863,
      "▁áre": 1864,
      "▁pop": 1865,
      "▁inclu": 1866,
      "▁equip": 1867,
      "▁Car": 1868,
      "▁inf": 1869,
      "er,": 1870,
      "▁forma": 1871,
      "ços": 1872,
      "</": 1873,
      "ício": 1874,
      "ill": 1875,
      "ismo": 1876,
      "âm": 1877,
      "red": 1878,
      ".\n\nO": 1879,
      "▁necess": 1880,
      "▁pal": 1881,
      "gan": 1882,
      "▁pont": 1883,
      "▁conv": 1884,
      "ranc": 1885,
      "▁arqu": 1886,
      "ições": 1887,
      "ores": 1888,
      "ata": 1889,
      "▁durante": 1890,
      "pri": 1891,
      "rut": 1892,
      "enta": 1893,
      "sos": 1894,
      "▁cri": 1895,
      "ária": 1896,
      "ital": 1897,
      ":\n": 1898,
      "olog": 1899,
      "▁Jo": 1900,
      "▁ano": 1901,
      "odo": 1902,
      "▁pe": 1903,
      "▁fam": 1904,
      "rado": 1905,
      "idente": 1906,
      "itas": 1907,
      "▁país": 1908,
      "ge": 1909,
      "▁mil": 1910,
      "▁probl": 1911,
      "íp": 1912,
      "idera": 1913,
      "tura": 1914,
      "▁neg": 1915,
      "s.": 1916,
      "ind": 1917,
      "ionais": 1918,
      "▁diz": 1919,
      "▁lon": 1920,
      "atura": 1921,
      "tor": 1922,
      "▁func": 1923,
      "▁Gu": 1924,
      "na": 1925,
      "FA": 1926,
      "▁sempre": 1927,
      "▁dist": 1928,
      "▁dev": 1929,
      "ar,": 1930,
      "t;\n": 1931,
      "hos": 1932,
      "▁exempl": 1933,
      "▁mús": 1934,
      "▁pare": 1935,
      "▁públ": 1936,
      "ena": 1937,
      "ím": 1938,
      "ório": 1939,
      "\nF": 1940,
      "▁Y": 1941,
      "▁lanç": 1942,
      "ril": 1943,
      "▁primeira": 1944,
      "ará": 1945,
      "▁min": 1946,
      "ore": 1947,
      "ân": 1948,
      "▁produt": 1949,
      "eric": 1950,
      "▁gt;\n": 1951,
      "▁apro": 1952,
      "▁k": 1953,
      "elec": 1954,
      "▁Ex": 1955,
      "ak": 1956,
      "▁inter": 1957,
      "orm": 1958,
      "▁desenvol": 1959,
      "▁govern": 1960,
      "ica,": 1961,
      "▁pra": 1962,
      "▁sal": 1963,
      "nder": 1964,
      "ack": 1965,
      "▁importa": 1966,
      "▁(19": 1967,
      "▁cr": 1968,
      "▁objet": 1969,
      "▁ed": 1970,
      "color": 1971,
      "▁Para": 1972,
      "▁disse": 1973,
      "ativ": 1974,
      "eram": 1975,
      "▁deve": 1976,
      "▁começ": 1977,
      "----": 1978,
      "iência": 1979,
      "▁sist": 1980,
      "rito": 1981,
      "▁Su": 1982,
      "▁Cam": 1983,
      "▁15": 1984,
      "icial": 1985,
      "▁após": 1986,
      "▁gru": 1987,
      "ultura": 1988,
      "▁esse": 1989,
      "ização": 1990,
      "▁amb": 1991,
      "▁assim": 1992,
      "asse": 1993,
      "▁cond": 1994,
      "quis": 1995,
      "▁antes": 1996,
      "ort": 1997,
      "▁só": 1998,
      "2.": 1999,
      "▁projet": 2000,
      "agens": 2001,
      "pa": 2002,
      "▁\n|": 2003,
      "▁}": 2004,
      "bo": 2005,
      "ual": 2006,
      ",\n": 2007,
      "201": 2008,
      "▁pou": 2009,
      "ebol": 2010,
      "▁trabalho": 2011,
      "árias": 2012,
      "▁É": 2013,
      "mit": 2014,
      "▁ut": 2015,
      "ento,": 2016,
      "▁novo": 2017,
      "para": 2018,
      "▁fre": 2019,
      "▁w": 2020,
      "ress": 2021,
      "▁ol": 2022,
      "1.": 2023,
      "je": 2024,
      "▁gu": 2025,
      "▁198": 2026,
      "ância": 2027,
      "gcolor": 2028,
      "esa": 2029,
      "gcolor=": 2030,
      "F1": 2031,
      "eiras": 2032,
      "▁prov": 2033,
      "▁As": 2034,
      "dução": 2035,
      "De": 2036,
      "io,": 2037,
      "íst": 2038,
      "▁exist": 2039,
      "mes": 2040,
      "0,": 2041,
      "▁história": 2042,
      "▁cur": 2043,
      "alh": 2044,
      "▁The": 2045,
      "▁últ": 2046,
      "▁servi": 2047,
      "her": 2048,
      "esse": 2049,
      "▁núm": 2050,
      "gem": 2051,
      "▁$": 2052,
      "AR": 2053,
      "▁desc": 2054,
      "▁polít": 2055,
      "gcolor=#": 2056,
      "ell": 2057,
      "▁som": 2058,
      "ique": 2059,
      "iro": 2060,
      "▁()": 2061,
      "▁ess": 2062,
      "isão": 2063,
      "▁op": 2064,
      ">\n": 2065,
      "Você": 2066,
      "▁particip": 2067,
      "▁base": 2068,
      "fia": 2069,
      "▁extern": 2070,
      "▁usar": 2071,
      "▁tão": 2072,
      "▁qualquer": 2073,
      "▁expl": 2074,
      "ribu": 2075,
      "▁bgcolor=#": 2076,
      "ang": 2077,
      "aneiro": 2078,
      "▁Z": 2079,
      "▁mud": 2080,
      "1,": 2081,
      "▁\n|-": 2082,
      ":\n\n": 2083,
      "2,": 2084,
      "▁conte": 2085,
      "ipo": 2086,
      "ên": 2087,
      "▁alguns": 2088,
      "▁outras": 2089,
      "id=": 2090,
      "gua": 2091,
      "▁meu": 2092,
      "▁met": 2093,
      "ação,": 2094,
      "no": 2095,
      "▁escol": 2096,
      "▁enquanto": 2097,
      ".\nP": 2098,
      "pro": 2099,
      "\".": 2100,
      "enção": 2101,
      "200": 2102,
      "ília": 2103,
      "uma": 2104,
      "atro": 2105,
      "res,": 2106,
      "ring": 2107,
      "▁\n|-id=": 2108,
      "oi": 2109,
      "ódigo": 2110,
      "▁utiliz": 2111,
      "za": 2112,
      "ução": 2113,
      "▁atrav": 2114,
      "▁er": 2115,
      "▁trabalh": 2116,
      "edade": 2117,
      "ordo": 2118,
      "utebol": 2119,
      "▁ped": 2120,
      "▁fun": 2121,
      "▁essa": 2122,
      "▁le": 2123,
      "▁.": 2124,
      "▁três": 2125,
      "log": 2126,
      "▁especial": 2127,
      "▁17": 2128,
      "▁di": 2129,
      "imentos": 2130,
      "▁aplic": 2131,
      "-f": 2132,
      "▁funcion": 2133,
      "▁</pre>": 2134,
      "▁/": 2135,
      "▁result": 2136,
      "ác": 2137,
      "▁Estados": 2138,
      "erto": 2139,
      "ure": 2140,
      "anto,": 2141,
      "tp": 2142,
      "▁outro": 2143,
      "all": 2144,
      "ik": 2145,
      "▁st": 2146,
      "amentos": 2147,
      "iver": 2148,
      "▁(1": 2149,
      "nec": 2150,
      "óri": 2151,
      "▁Le": 2152,
      "▁cu": 2153,
      "ida,": 2154,
      "▁vai": 2155,
      "▁duas": 2156,
      "formações": 2157,
      "óg": 2158,
      "▁and": 2159,
      "emente": 2160,
      "▁valor": 2161,
      "af": 2162,
      "lex": 2163,
      "ES": 2164,
      "oria": 2165,
      "ada,": 2166,
      "▁consegu": 2167,
      "▁most": 2168,
      "▁méd": 2169,
      "▁e,": 2170,
      "put": 2171,
      "▁Int": 2172,
      "▁fin": 2173,
      "cob": 2174,
      "▁intern": 2175,
      "ulação": 2176,
      "▁será": 2177,
      "enha": 2178,
      "▁can": 2179,
      "▁mom": 2180,
      "press": 2181,
      "▁16": 2182,
      "igações": 2183,
      "tos": 2184,
      "▁fornec": 2185,
      "▁the": 2186,
      "icion": 2187,
      "▁Ass": 2188,
      "iação": 2189,
      "</code>": 2190,
      "▁meio": 2191,
      "ame": 2192,
      "▁Ap": 2193,
      "rança": 2194,
      "▁cent": 2195,
      "y,": 2196,
      "▁constru": 2197,
      "xim": 2198,
      "▁continu": 2199,
      "▁Ele": 2200,
      "▁super": 2201,
      "Se": 2202,
      "▁apresent": 2203,
      "▁not": 2204,
      "▁hab": 2205,
      "lub": 2206,
      "dade": 2207,
      "▁tro": 2208,
      "duc": 2209,
      "▁cois": 2210,
      "ág": 2211,
      "or,": 2212,
      "▁ajud": 2213,
      "ôm": 2214,
      "ás": 2215,
      "ulos": 2216,
      "▁ref": 2217,
      "▁public": 2218,
      "cer": 2219,
      "▁todo": 2220,
      "E3": 2221,
      "emas": 2222,
      "es.": 2223,
      "▁12": 2224,
      "▁fund": 2225,
      "▁197": 2226,
      "inas": 2227,
      "▁Nov": 2228,
      "▁comun": 2229,
      "íf": 2230,
      "▁El": 2231,
      "▁enc": 2232,
      "dad": 2233,
      "oz": 2234,
      "pira": 2235,
      "▁área": 2236,
      "▁esta": 2237,
      "ice": 2238,
      "▁hum": 2239,
      "▁</p>\n\n<p>": 2240,
      "avam": 2241,
      "▁Sant": 2242,
      "▁dent": 2243,
      "irm": 2244,
      "unto": 2245,
      "▁porque": 2246,
      "▁além": 2247,
      "▁ativ": 2248,
      "sso": 2249,
      "▁dias": 2250,
      "▁brasil": 2251,
      "▁todas": 2252,
      "ilo": 2253,
      "▁var": 2254,
      "is,": 2255,
      "▁dez": 2256,
      "▁tinha": 2257,
      "▁cab": 2258,
      "▁orig": 2259,
      "erta": 2260,
      "▁caus": 2261,
      "ide": 2262,
      "▁dem": 2263,
      "▁</code>": 2264,
      "▁considera": 2265,
      "▁informações": 2266,
      "Como": 2267,
      "▁entanto,": 2268,
      "▁lugar": 2269,
      "ado.": 2270,
      "▁desde": 2271,
      "▁exec": 2272,
      "▁pequ": 2273,
      "ico,": 2274,
      "ia.": 2275,
      "▁então": 2276,
      "▁segundo": 2277,
      "▁invest": 2278,
      "▁set": 2279,
      "▁apo": 2280,
      "▁sido": 2281,
      "▁lim": 2282,
      "▁imp": 2283,
      "▁havia": 2284,
      "▁número": 2285,
      ".\n\nEm": 2286,
      "íveis": 2287,
      "▁cin": 2288,
      "▁tudo": 2289,
      "▁via": 2290,
      "▁organ": 2291,
      "▁exper": 2292,
      "▁Rio": 2293,
      "\n\n<pre>": 2294,
      "úde": 2295,
      "▁ru": 2296,
      "ério": 2297,
      "atal": 2298,
      "cional": 2299,
      "reg": 2300,
      "▁usando": 2301,
      "ax": 2302,
      "▁acordo": 2303,
      "ui": 2304,
      "▁próp": 2305,
      "▁quem": 2306,
      "▁aqui": 2307,
      "3.": 2308,
      "▁pelos": 2309,
      "▁externas": 2310,
      "▁x": 2311,
      "▁And": 2312,
      "▁repres": 2313,
      "anos": 2314,
      "emos": 2315,
      "▁mul": 2316,
      "▁fac": 2317,
      "▁bo": 2318,
      "nça": 2319,
      "▁Cl": 2320,
      "IN": 2321,
      "▁14": 2322,
      "▁partir": 2323,
      "\nN": 2324,
      "ation": 2325,
      "▁código": 2326,
      "iga": 2327,
      "▁através": 2328,
      "Ligações": 2329,
      "▁Gra": 2330,
      "▁sign": 2331,
      "▁Im": 2332,
      "▁ve": 2333,
      "im,": 2334,
      "xto": 2335,
      "▁person": 2336,
      "21": 2337,
      ".O": 2338,
      "ra,": 2339,
      "▁pois": 2340,
      "ime": 2341,
      "▁Univers": 2342,
      "▁Co": 2343,
      "ane": 2344,
      "▁Ad": 2345,
      "▁Col": 2346,
      "minist": 2347,
      "▁minha": 2348,
      "▁dec": 2349,
      "▁algumas": 2350,
      "so,": 2351,
      "leg": 2352,
      "▁ún": 2353,
      "cri": 2354,
      "▁defin": 2355,
      "our": 2356,
      "▁geral": 2357,
      "▁Ac": 2358,
      "ton": 2359,
      "▁nova": 2360,
      "osto": 2361,
      "▁profiss": 2362,
      "au": 2363,
      "▁agora": 2364,
      "▁Unidos": 2365,
      "Um": 2366,
      "▁rest": 2367,
      "▁desenvolv": 2368,
      "▁disc": 2369,
      "tas": 2370,
      "contec": 2371,
      "ifica": 2372,
      "▁“": 2373,
      "▁seja": 2374,
      "▁Portu": 2375,
      "▁An": 2376,
      "Re": 2377,
      ".\n\nP": 2378,
      "▁munic": 2379,
      "▁sistema": 2380,
      "▁pens": 2381,
      "▁contro": 2382,
      "▁cal": 2383,
      "▁mant": 2384,
      "▁séri": 2385,
      "▁local": 2386,
      "▁Soc": 2387,
      "▁class": 2388,
      "ativo": 2389,
      "isco": 2390,
      "undo": 2391,
      "▁estud": 2392,
      "ER": 2393,
      "3,": 2394,
      "▁aum": 2395,
      "▁palav": 2396,
      "▁Lu": 2397,
      "▁tent": 2398,
      "ph": 2399,
      "5,": 2400,
      "ies": 2401,
      "jo": 2402,
      "▁filme": 2403,
      "ologia": 2404,
      "dor": 2405,
      "asta": 2406,
      "lb": 2407,
      "iado": 2408,
      "▁mov": 2409,
      "▁merc": 2410,
      "▁emb": 2411,
      "dic": 2412,
      "▁região": 2413,
      "8,": 2414,
      "ilhões": 2415,
      "▁suc": 2416,
      "▁grupo": 2417,
      "grama": 2418,
      "▁localiz": 2419,
      "▁descob": 2420,
      "▁acontec": 2421,
      "▁Par": 2422,
      "▁música": 2423,
      "adr": 2424,
      "▁fer": 2425,
      "ientes": 2426,
      "-l": 2427,
      "OS": 2428,
      "▁desta": 2429,
      "▁Des": 2430,
      "rom": 2431,
      "riz": 2432,
      "ceu": 2433,
      "▁Paulo": 2434,
      "car": 2435,
      "▁maio": 2436,
      "écn": 2437,
      "▁tec": 2438,
      "▁apre": 2439,
      "ron": 2440,
      "▁(\"": 2441,
      "posta": 2442,
      "6,": 2443,
      "▁menos": 2444,
      "áveis": 2445,
      "▁tipo": 2446,
      "inhas": 2447,
      "ive": 2448,
      "▁tenho": 2449,
      "ach": 2450,
      "▁empresa": 2451,
      "▁pesquis": 2452,
      "▁dentro": 2453,
      "▁196": 2454,
      "pend": 2455,
      "ow": 2456,
      "▁,": 2457,
      "▁Ol": 2458,
      "r.": 2459,
      "▁divers": 2460,
      "ry": 2461,
      "▁Ver": 2462,
      "▁usu": 2463,
      "▁que,": 2464,
      "▁tot": 2465,
      "▁gara": 2466,
      "▁cheg": 2467,
      "▁tom": 2468,
      "eira,": 2469,
      "▁retorn": 2470,
      "4,": 2471,
      "▁opera": 2472,
      "unca": 2473,
      ".\n\nC": 2474,
      "▁11": 2475,
      "▁rep": 2476,
      "isc": 2477,
      "▁Sp": 2478,
      "▁vers": 2479,
      "▁estre": 2480,
      "▁possível": 2481,
      "iew": 2482,
      "uto": 2483,
      "ificação": 2484,
      "idade,": 2485,
      "▁leg": 2486,
      "▁Ant": 2487,
      "▁on": 2488,
      "issão": 2489,
      "▁uso": 2490,
      "acion": 2491,
      "▁serv": 2492,
      "▁inic": 2493,
      "▁Na": 2494,
      "tar": 2495,
      "▁melho": 2496,
      "▁estado": 2497,
      "ity": 2498,
      "▁sur": 2499,
      "▁det": 2500,
      "▁jul": 2501,
      "dos": 2502,
      "\nD": 2503,
      "▁baix": 2504,
      "▁At": 2505,
      ";\n\n": 2506,
      "ug": 2507,
      "▁lt;/": 2508,
      "ete": 2509,
      "gram": 2510,
      "▁seguinte": 2511,
      "▁importante": 2512,
      "gunt": 2513,
      "▁econ": 2514,
      "reira": 2515,
      "▁ofere": 2516,
      "xt": 2517,
      "▁vend": 2518,
      "▁cara": 2519,
      "resc": 2520,
      "▁fez": 2521,
      "▁compl": 2522,
      "▁13": 2523,
      "F1F1": 2524,
      "7,": 2525,
      "eto": 2526,
      "qui": 2527,
      "ta,": 2528,
      "▁Bar": 2529,
      "igos": 2530,
      "▁família": 2531,
      "▁simpl": 2532,
      "▁pag": 2533,
      "9,": 2534,
      "▁caso": 2535,
      "▁+": 2536,
      "iment": 2537,
      "▁Esp": 2538,
      "▁vários": 2539,
      "▁espera": 2540,
      "-1": 2541,
      "▁cat": 2542,
      "íde": 2543,
      "rutura": 2544,
      "AS": 2545,
      "://": 2546,
      "stitu": 2547,
      ")\n\n": 2548,
      "▁der": 2549,
      "▁modelo": 2550,
      "▁apare": 2551,
      "▁Fe": 2552,
      "▁corre": 2553,
      "▁band": 2554,
      "\nT": 2555,
      "▁mot": 2556,
      "▁\\": 2557,
      "óp": 2558,
      "▁tre": 2559,
      "ogo": 2560,
      "▁Tra": 2561,
      "▁função": 2562,
      "eza": 2563,
      "aro": 2564,
      "ais,": 2565,
      "▁autor": 2566,
      "4.": 2567,
      "▁processo": 2568,
      "▁teve": 2569,
      "él": 2570,
      "ise": 2571,
      "▁quer": 2572,
      "▁casa": 2573,
      "▁pouco": 2574,
      "isto": 2575,
      "ome": 2576,
      "serv": 2577,
      "one": 2578,
      "▁lo": 2579,
      "cio": 2580,
      "ON": 2581,
      "des": 2582,
      "tação": 2583,
      "Uma": 2584,
      "ados,": 2585,
      "ro,": 2586,
      "estão": 2587,
      "▁ing": 2588,
      "▁bus": 2589,
      "iedade": 2590,
      "▁Or": 2591,
      ".com": 2592,
      "▁estar": 2593,
      "▁situ": 2594,
      "▁30": 2595,
      "▁maneira": 2596,
      "▁Á": 2597,
      "▁nunca": 2598,
      "II": 2599,
      "/0": 2600,
      "▁gera": 2601,
      "imos": 2602,
      "▁doc": 2603,
      "▁to": 2604,
      "▁Mas": 2605,
      "EN": 2606,
      "oca": 2607,
      "Ver": 2608,
      "ament": 2609,
      "▁mét": 2610,
      "▁Ed": 2611,
      "▁conta": 2612,
      "▁Ma": 2613,
      "▁Ent": 2614,
      "▁pergunt": 2615,
      "ificar": 2616,
      "▁esco": 2617,
      "▁linha": 2618,
      "FAFA": 2619,
      "▁pap": 2620,
      "000": 2621,
      "ót": 2622,
      "▁il": 2623,
      "▁vezes": 2624,
      "▁diferentes": 2625,
      "conhec": 2626,
      "▁comb": 2627,
      "ich": 2628,
      "let": 2629,
      "erca": 2630,
      "▁bom": 2631,
      "comp": 2632,
      "reve": 2633,
      "ua": 2634,
      "▁grav": 2635,
      "ativa": 2636,
      "▁algo": 2637,
      "▁Ag": 2638,
      "5.": 2639,
      "get": 2640,
      "orr": 2641,
      "▁Ab": 2642,
      "▁têm": 2643,
      "iram": 2644,
      "▁(P": 2645,
      "ense": 2646,
      "ido,": 2647,
      "ança": 2648,
      "▁rev": 2649,
      "dores": 2650,
      "pect": 2651,
      "er.": 2652,
      "▁muitos": 2653,
      "▁Eu": 2654,
      "fil": 2655,
      "▁Não": 2656,
      "ock": 2657,
      "▁arquivo": 2658,
      "\"\n": 2659,
      "ículo": 2660,
      "▁sof": 2661,
      "ene": 2662,
      "▁(C": 2663,
      "▁espa": 2664,
      "pons": 2665,
      "▁jogo": 2666,
      "▁perí": 2667,
      "▁disso,": 2668,
      "osa": 2669,
      "▁presidente": 2670,
      "▁governo": 2671,
      "ática": 2672,
      "iano": 2673,
      "▁</p>\n\n<pre>": 2674,
      "onte": 2675,
      "``": 2676,
      "▁Pr": 2677,
      "oro": 2678,
      "tion": 2679,
      "gal": 2680,
      "ón": 2681,
      "icamente": 2682,
      "▁regist": 2683,
      "▁exc": 2684,
      "▁fra": 2685,
      "▁Cent": 2686,
      "▁lib": 2687,
      "▁quais": 2688,
      "▁Pol": 2689,
      "ash": 2690,
      "▁pelas": 2691,
      "▁</s": 2692,
      "▁toda": 2693,
      "age": 2694,
      "▁Bo": 2695,
      "▁bar": 2696,
      "▁acab": 2697,
      "iou": 2698,
      "ença": 2699,
      "▁série": 2700,
      "ste": 2701,
      "In": 2702,
      "out": 2703,
      "50": 2704,
      "har": 2705,
      "▁cultura": 2706,
      "ingu": 2707,
      "22": 2708,
      "▁Sul": 2709,
      "▁deter": 2710,
      "▁inform": 2711,
      "▁bol": 2712,
      "OR": 2713,
      "▁empre": 2714,
      "dio": 2715,
      "▁má": 2716,
      "▁jorn": 2717,
      "▁km": 2718,
      "▁séc": 2719,
      "ork": 2720,
      "30": 2721,
      "A,": 2722,
      "▁Jos": 2723,
      "▁recur": 2724,
      "▁et": 2725,
      "▁escrit": 2726,
      "▁municíp": 2727,
      "▁garant": 2728,
      "▁longo": 2729,
      "▁num": 2730,
      "ça,": 2731,
      "iel": 2732,
      "▁real": 2733,
      "▁ganh": 2734,
      "▁Th": 2735,
      "▁cob": 2736,
      "lin": 2737,
      "▁início": 2738,
      "▁muitas": 2739,
      "▁técn": 2740,
      "▁Sa": 2741,
      "▁tal": 2742,
      "▁projeto": 2743,
      "▁milhões": 2744,
      "mente,": 2745,
      "atos": 2746,
      "▁envol": 2747,
      "▁espéc": 2748,
      "peon": 2749,
      "▁segunda": 2750,
      "▁principal": 2751,
      "▁z": 2752,
      "ndes": 2753,
      "▁várias": 2754,
      "▁ocorre": 2755,
      "aval": 2756,
      "ída": 2757,
      "lam": 2758,
      "▁equipe": 2759,
      "▁<p>": 2760,
      "ráf": 2761,
      "ção,": 2762,
      "▁dispon": 2763,
      "▁anim": 2764,
      "rações": 2765,
      "▁dese": 2766,
      "reiro": 2767,
      "▁marc": 2768,
      "▁Nacional": 2769,
      "osta": 2770,
      "▁</pre>\n\n<p>": 2771,
      "ww": 2772,
      "▁Segu": 2773,
      "encial": 2774,
      "E3E3": 2775,
      "▁son": 2776,
      "tant": 2777,
      "▁Cont": 2778,
      "▁população": 2779,
      "▁nenh": 2780,
      "jam": 2781,
      "▁propri": 2782,
      "uda": 2783,
      "ito,": 2784,
      "▁estab": 2785,
      "▁Euro": 2786,
      "ila": 2787,
      "▁site": 2788,
      "uss": 2789,
      "▁lado": 2790,
      "▁coloc": 2791,
      "▁homem": 2792,
      "▁ficou": 2793,
      "▁(S": 2794,
      "áb": 2795,
      "ll": 2796,
      "▁alt": 2797,
      "▁respons": 2798,
      "▁sex": 2799,
      "▁Como": 2800,
      "ona": 2801,
      "▁prom": 2802,
      "▁momento": 2803,
      "▁Pre": 2804,
      "AN": 2805,
      "feito": 2806,
      "hn": 2807,
      "▁encontrar": 2808,
      "▁tel": 2809,
      "▁elem": 2810,
      "ãos": 2811,
      "asc": 2812,
      "▁compet": 2813,
      "Em": 2814,
      "unho": 2815,
      "eno": 2816,
      "▁produz": 2817,
      "▁DE": 2818,
      "▁Min": 2819,
      "',": 2820,
      "▁represent": 2821,
      "▁fim": 2822,
      "▁corpo": 2823,
      "▁R$": 2824,
      "▁ente": 2825,
      "▁tur": 2826,
      "▁impl": 2827,
      "▁Universidade": 2828,
      "▁eram": 2829,
      "11": 2830,
      "▁verdad": 2831,
      "▁cant": 2832,
      "▁tít": 2833,
      "itor": 2834,
      "▁vo": 2835,
      "ode": 2836,
      "▁criar": 2837,
      "val": 2838,
      "iol": 2839,
      "essa": 2840,
      "ba": 2841,
      "deral": 2842,
      "lob": 2843,
      "▁del": 2844,
      "▁começou": 2845,
      "▁anter": 2846,
      "grafia": 2847,
      "▁quatro": 2848,
      "▁álb": 2849,
      "ey": 2850,
      "▁fav": 2851,
      "▁relacion": 2852,
      "ibl": 2853,
      "▁Intern": 2854,
      ".\"": 2855,
      "▁:": 2856,
      "▁próx": 2857,
      "▁Um": 2858,
      "▁artigo": 2859,
      "iana": 2860,
      "▁Pl": 2861,
      "▁inspira": 2862,
      "▁problema": 2863,
      "▁anos,": 2864,
      "cou": 2865,
      "▁execut": 2866,
      "ical": 2867,
      "▁programa": 2868,
      "▁relação": 2869,
      "IS": 2870,
      "los": 2871,
      "▁sec": 2872,
      "fo": 2873,
      "ég": 2874,
      ".\nN": 2875,
      "ído": 2876,
      "arde": 2877,
      "▁Man": 2878,
      "▁194": 2879,
      "▁palavras": 2880,
      "dem": 2881,
      "▁Val": 2882,
      "nquanto": 2883,
      "▁docum": 2884,
      "eça": 2885,
      "▁}\n": 2886,
      "esar": 2887,
      "▁mus": 2888,
      "gon": 2889,
      "ace": 2890,
      "abora": 2891,
      "▁conteú": 2892,
      ".\n\nD": 2893,
      "▁ate": 2894,
      "=\"": 2895,
      "▁ident": 2896,
      "ivas": 2897,
      "cia": 2898,
      "▁Te": 2899,
      "▁procura": 2900,
      "porte": 2901,
      "ong": 2902,
      "li": 2903,
      ".\nC": 2904,
      "das": 2905,
      "ubro": 2906,
      "http": 2907,
      "▁permit": 2908,
      "▁seria": 2909,
      "iblio": 2910,
      "emp": 2911,
      "....": 2912,
      "▁prote": 2913,
      "ins": 2914,
      "▁Sal": 2915,
      "▁cerca": 2916,
      "tes": 2917,
      "ance": 2918,
      "▁lista": 2919,
      "▁bat": 2920,
      "▁mesma": 2921,
      "▁volta": 2922,
      "ou-se": 2923,
      "▁outra": 2924,
      "ques": 2925,
      "▁saúde": 2926,
      "▁administ": 2927,
      "▁dom": 2928,
      "▁Pe": 2929,
      "▁nosso": 2930,
      "▁mens": 2931,
      "isso,": 2932,
      "▁gol": 2933,
      "gue": 2934,
      "▁produção": 2935,
      "▁//": 2936,
      "▁déc": 2937,
      "ferência": 2938,
      "▁ide": 2939,
      "rando": 2940,
      "▁determin": 2941,
      "ícia": 2942,
      "peonato": 2943,
      "12": 2944,
      "▁ata": 2945,
      "▁Fran": 2946,
      "▁fica": 2947,
      "rent": 2948,
      "nças": 2949,
      "▁quanto": 2950,
      "▁\"A": 2951,
      "▁social": 2952,
      "atch": 2953,
      "ól": 2954,
      "▁La": 2955,
      "▁Estado": 2956,
      "▁rá": 2957,
      "ff": 2958,
      "Isso": 2959,
      "▁Reg": 2960,
      "amp": 2961,
      "▁instal": 2962,
      "▁i": 2963,
      "▁program": 2964,
      "\n\nC": 2965,
      "▁incluindo": 2966,
      "▁ens": 2967,
      "▁Cas": 2968,
      "▁junt": 2969,
      "ink": 2970,
      "▁25": 2971,
      "inos": 2972,
      "maz": 2973,
      "enso": 2974,
      "h,": 2975,
      "▁Paul": 2976,
      "▁prev": 2977,
      "▁24": 2978,
      "▁fora": 2979,
      "AD": 2980,
      "▁Pal": 2981,
      "AL": 2982,
      "alização": 2983,
      "urg": 2984,
      "▁Cons": 2985,
      "sas": 2986,
      "▁simples": 2987,
      "▁Lo": 2988,
      "eros": 2989,
      "▁enf": 2990,
      "▁exemplo": 2991,
      "▁janeiro": 2992,
      "part": 2993,
      "uta": 2994,
      "\nB": 2995,
      "▁('": 2996,
      "▁dar": 2997,
      "!!": 2998,
      "▁público": 2999,
      "▁adicion": 3000,
      "emin": 3001,
      "▁posso": 3002,
      "ibilidade": 3003,
      "▁hoje": 3004,
      "▁isso,": 3005,
      "6.": 3006,
      "▁carac": 3007,
      "\nL": 3008,
      "▁século": 3009,
      "▁mal": 3010,
      "▁elev": 3011,
      "▁poderia": 3012,
      "adora": 3013,
      "tugu": 3014,
      "▁Rec": 3015,
      "lus": 3016,
      "ente,": 3017,
      "▁exemplo,": 3018,
      "▁deste": 3019,
      "ons": 3020,
      ".\nM": 3021,
      "u,": 3022,
      "▁estrutura": 3023,
      "▁|\n|": 3024,
      "cos": 3025,
      "Quando": 3026,
      "▁tendo": 3027,
      "▁nossa": 3028,
      "ensão": 3029,
      "▁Janeiro": 3030,
      "▁ép": 3031,
      "▁Portugal": 3032,
      "izar": 3033,
      "ogra": 3034,
      "has": 3035,
      "mas": 3036,
      "▁ouv": 3037,
      ".P": 3038,
      "fa": 3039,
      "▁estabelec": 3040,
      "▁período": 3041,
      "▁setembro": 3042,
      "▁trat": 3043,
      "▁bel": 3044,
      "▁perman": 3045,
      "entemente": 3046,
      "▁Nova": 3047,
      "▁nem": 3048,
      "▁dezembro": 3049,
      "▁habit": 3050,
      "ruz": 3051,
      "tores": 3052,
      "aixa": 3053,
      "▁conj": 3054,
      "vereiro": 3055,
      "▁grandes": 3056,
      "▁neste": 3057,
      "po,": 3058,
      "Vers": 3059,
      "stro": 3060,
      "▁cir": 3061,
      "▁lá": 3062,
      "bol": 3063,
      "▁Res": 3064,
      "▁tecn": 3065,
      "▁livro": 3066,
      "▁195": 3067,
      "▁nesta": 3068,
      "▁versão": 3069,
      "etro": 3070,
      "AT": 3071,
      "▁Ob": 3072,
      "▁mo": 3073,
      "▁estou": 3074,
      "▁pág": 3075,
      "itura": 3076,
      "▁álbum": 3077,
      "▁terc": 3078,
      "itt": 3079,
      "▁lig": 3080,
      "icar": 3081,
      "ath": 3082,
      "IC": 3083,
      "ck": 3084,
      "cul": 3085,
      "inheiro": 3086,
      "rica": 3087,
      "▁Inst": 3088,
      "elha": 3089,
      "▁desenvolvimento": 3090,
      "ilmes": 3091,
      "▁oficial": 3092,
      "▁#": 3093,
      "how": 3094,
      "ml": 3095,
      "sp": 3096,
      "ina,": 3097,
      "▁financ": 3098,
      "▁mercado": 3099,
      "▁sou": 3100,
      "rist": 3101,
      "odos": 3102,
      "__": 3103,
      "iões": 3104,
      "▁natura": 3105,
      "▁(A": 3106,
      "ID": 3107,
      "▁test": 3108,
      "rest": 3109,
      ".\n\nF": 3110,
      "▁água": 3111,
      "▁ban": 3112,
      "▁novembro": 3113,
      "▁100": 3114,
      "orro": 3115,
      "▁portugu": 3116,
      "▁Cop": 3117,
      "▁mon": 3118,
      "uv": 3119,
      "roid": 3120,
      "▁devido": 3121,
      "▁priv": 3122,
      "ick": 3123,
      "▁fato": 3124,
      "▁*": 3125,
      "▁Foi": 3126,
      "▁Mus": 3127,
      "▁decl": 3128,
      "▁papel": 3129,
      "▁1.": 3130,
      "posição": 3131,
      "▁Fl": 3132,
      "\n\nA": 3133,
      "▁possui": 3134,
      "▁precisa": 3135,
      "tanto,": 3136,
      "▁resol": 3137,
      "rir": 3138,
      "ogos": 3139,
      "▁serviços": 3140,
      "\nR": 3141,
      "▁usuário": 3142,
      "▁it": 3143,
      "ar.": 3144,
      "▁principais": 3145,
      "▁rap": 3146,
      "▁Is": 3147,
      "▁jov": 3148,
      "▁abril": 3149,
      "is.": 3150,
      "ificado": 3151,
      "▁coração": 3152,
      "line": 3153,
      "▁viv": 3154,
      "itação": 3155,
      "▁cust": 3156,
      "osp": 3157,
      "i.": 3158,
      "▁serviço": 3159,
      "\n\nP": 3160,
      "▁classe": 3161,
      "7.": 3162,
      "▁process": 3163,
      "▁data": 3164,
      "eria": 3165,
      "▁padr": 3166,
      "▁Franc": 3167,
      "▁integra": 3168,
      "sk": 3169,
      "ociação": 3170,
      "▁problemas": 3171,
      ".Ele": 3172,
      "lube": 3173,
      "▁cert": 3174,
      "▁US": 3175,
      "heres": 3176,
      "▁acesso": 3177,
      "▁ba": 3178,
      "▁quase": 3179,
      "ren": 3180,
      "▁educ": 3181,
      "▁espaço": 3182,
      "▁Ste": 3183,
      "▁norte": 3184,
      "tal": 3185,
      "▁21": 3186,
      "▁tab": 3187,
      "▁decis": 3188,
      "▁sucesso": 3189,
      "▁alc": 3190,
      "▁emp": 3191,
      "▁nada": 3192,
      "\n\nE": 3193,
      "▁interess": 3194,
      "▁produtos": 3195,
      "Versículo": 3196,
      "▁energ": 3197,
      "eix": 3198,
      "pós": 3199,
      "ue": 3200,
      "▁conhecido": 3201,
      "▁método": 3202,
      "}\n": 3203,
      "▁Este": 3204,
      "ou,": 3205,
      "▁pert": 3206,
      "▁indiv": 3207,
      "cha": 3208,
      "▁2020": 3209,
      "▁(200": 3210,
      "0.": 3211,
      "▁alte": 3212,
      "into": 3213,
      "ológ": 3214,
      "▁perd": 3215,
      "ival": 3216,
      "▁Can": 3217,
      "8.": 3218,
      "▁Deus": 3219,
      "órias": 3220,
      "▁cer": 3221,
      "mon": 3222,
      "tec": 3223,
      "▁-se": 3224,
      "▁total": 3225,
      "...\n": 3226,
      "▁segurança": 3227,
      "/201": 3228,
      "▁horas": 3229,
      "▁nós": 3230,
      "▁comerc": 3231,
      "▁tarde": 3232,
      "▁capac": 3233,
      "iada": 3234,
      "▁empresas": 3235,
      "▁José": 3236,
      "▁Fil": 3237,
      "ícias": 3238,
      "▁estilo": 3239,
      "amente,": 3240,
      "▁tenha": 3241,
      ".\n\nM": 3242,
      "iat": 3243,
      "▁dever": 3244,
      "▁rem": 3245,
      "▁futebol": 3246,
      "esc": 3247,
      "▁morte": 3248,
      "▁observ": 3249,
      "▁encontra": 3250,
      "▁cinco": 3251,
      "▁americ": 3252,
      "omia": 3253,
      "etr": 3254,
      "St": 3255,
      "inar": 3256,
      "elecion": 3257,
      "▁Cor": 3258,
      "iados": 3259,
      "▁aproxim": 3260,
      "▁março": 3261,
      "-feira": 3262,
      "inação": 3263,
      "▁específ": 3264,
      "ger": 3265,
      "▁próprio": 3266,
      "▁nacional": 3267,
      "▁outubro": 3268,
      "▁conqu": 3269,
      "▁Cal": 3270,
      "▁pessoa": 3271,
      "▁inde": 3272,
      "adas,": 3273,
      "ement": 3274,
      "▁En": 3275,
      "ilha": 3276,
      "cion": 3277,
      "▁lit": 3278,
      "▁Grande": 3279,
      "ulas": 3280,
      "oss": 3281,
      "▁direito": 3282,
      "▁basta": 3283,
      "▁conteúdo": 3284,
      "▁Sil": 3285,
      "▁th": 3286,
      "rum": 3287,
      "embros": 3288,
      "▁imagem": 3289,
      "cript": 3290,
      "▁saber": 3291,
      "▁Per": 3292,
      "ude": 3293,
      "eles": 3294,
      "▁22": 3295,
      "\n\nLigações": 3296,
      "ans": 3297,
      "idor": 3298,
      "ront": 3299,
      "▁gen": 3300,
      ".\n\"": 3301,
      "▁franc": 3302,
      "▁2000": 3303,
      "ze": 3304,
      "▁vit": 3305,
      "▁(M": 3306,
      "▁reconhec": 3307,
      "ris": 3308,
      "land": 3309,
      "▁193": 3310,
      "▁ponto": 3311,
      "▁traz": 3312,
      ".\n\nS": 3313,
      "▁Rob": 3314,
      "▁afirm": 3315,
      "▁Uma": 3316,
      "▁mater": 3317,
      "▁cel": 3318,
      "▁nível": 3319,
      "ão.": 3320,
      "▁exib": 3321,
      "▁ampl": 3322,
      "▁quar": 3323,
      "▁víde": 3324,
      "reja": 3325,
      "▁coment": 3326,
      "ímp": 3327,
      "▁pontos": 3328,
      "andid": 3329,
      "▁feito": 3330,
      "--------": 3331,
      "▁reun": 3332,
      "old": 3333,
      "ferências": 3334,
      "ário,": 3335,
      "ica.": 3336,
      "▁temporada": 3337,
      "▁município": 3338,
      "▁norm": 3339,
      "elos": 3340,
      "\nJ": 3341,
      "inhos": 3342,
      "abilidade": 3343,
      "▁Dire": 3344,
      "▁ht": 3345,
      "▁fut": 3346,
      "▁estran": 3347,
      "▁dig": 3348,
      "▁frente": 3349,
      "inado": 3350,
      "ly": 3351,
      "elas": 3352,
      "▁julho": 3353,
      "▁exp": 3354,
      "come": 3355,
      "▁assist": 3356,
      "▁luz": 3357,
      "inta": 3358,
      "▁pot": 3359,
      "▁tanto": 3360,
      "▁organiz": 3361,
      "antas": 3362,
      "vio": 3363,
      "▁maioria": 3364,
      "ment": 3365,
      "▁evento": 3366,
      "▁\nA": 3367,
      "icos,": 3368,
      "ocal": 3369,
      "▁junho": 3370,
      "▁ajudar": 3371,
      "▁pai": 3372,
      "▁idio": 3373,
      "▁arte": 3374,
      ".C": 3375,
      "ovo": 3376,
      ").\n": 3377,
      "▁sens": 3378,
      "▁Go": 3379,
      "rop": 3380,
      "▁João": 3381,
      "ista,": 3382,
      "▁agosto": 3383,
      "ount": 3384,
      "\nMas": 3385,
      "var": 3386,
      "ence": 3387,
      "▁anterior": 3388,
      "▁perm": 3389,
      "ipe": 3390,
      "▁Cat": 3391,
      "par": 3392,
      "urso": 3393,
      "▁Rom": 3394,
      "org": 3395,
      "▁mora": 3396,
      "br": 3397,
      "▁novos": 3398,
      "▁New": 3399,
      "zo": 3400,
      "icações": 3401,
      "ÃO": 3402,
      "▁fevereiro": 3403,
      "▁23": 3404,
      "▁ep": 3405,
      "-19": 3406,
      "▁texto": 3407,
      "▁valores": 3408,
      "ux": 3409,
      "▁import": 3410,
      "ícios": 3411,
      "▁cresc": 3412,
      "25": 3413,
      "▁(s": 3414,
      "▁sus": 3415,
      "▁irm": 3416,
      "▁deixar": 3417,
      "ech": 3418,
      "▁filho": 3419,
      "vo": 3420,
      "▁esqu": 3421,
      "▁Out": 3422,
      "▁Além": 3423,
      "al.": 3424,
      "▁obras": 3425,
      "co,": 3426,
      ".\n\nN": 3427,
      "▁campo": 3428,
      "▁aval": 3429,
      "18": 3430,
      "ja,": 3431,
      "▁Amér": 3432,
      "-lo": 3433,
      "iqu": 3434,
      "▁resultado": 3435,
      "\n\nO": 3436,
      "▁caracter": 3437,
      "eta": 3438,
      "▁caminho": 3439,
      "▁bril": 3440,
      "▁vag": 3441,
      "▁lemb": 3442,
      "▁diret": 3443,
      "▁rede": 3444,
      "▁amor": 3445,
      "una": 3446,
      "▁acess": 3447,
      "ier": 3448,
      "▁parece": 3449,
      "▁qualidade": 3450,
      "lay": 3451,
      "15": 3452,
      "▁dinheiro": 3453,
      "▁fl": 3454,
      "aixo": 3455,
      "▁convers": 3456,
      "aça": 3457,
      "ndeu": 3458,
      "23": 3459,
      "▁melhores": 3460,
      "oso": 3461,
      "▁original": 3462,
      "ype": 3463,
      "ulg": 3464,
      "arc": 3465,
      "istória": 3466,
      "▁profissional": 3467,
      "▁mist": 3468,
      "▁coisas": 3469,
      "adeira": 3470,
      "umb": 3471,
      "▁consum": 3472,
      "▁alguma": 3473,
      "▁Ba": 3474,
      "▁passou": 3475,
      "wn": 3476,
      "▁Ge": 3477,
      "eiro,": 3478,
      "▁título": 3479,
      "▁recursos": 3480,
      "▁erro": 3481,
      ".\nS": 3482,
      "▁Ped": 3483,
      "▁resposta": 3484,
      "ulta": 3485,
      "▁própria": 3486,
      "16": 3487,
      "▁configu": 3488,
      "▁objetivo": 3489,
      "'s": 3490,
      "▁crít": 3491,
      "▁Sh": 3492,
      "erem": 3493,
      "▁í": 3494,
      "▁acomp": 3495,
      "ann": 3496,
      "▁ren": 3497,
      "-s": 3498,
      "óc": 3499,
      "rados": 3500,
      "▁termin": 3501,
      "14": 3502,
      "▁acred": 3503,
      "▁y": 3504,
      "▁vir": 3505,
      "tou": 3506,
      "leta": 3507,
      "ject": 3508,
      "▁chamado": 3509,
      "▁mont": 3510,
      "mo,": 3511,
      "▁Maria": 3512,
      "▁experiência": 3513,
      "▁Mo": 3514,
      "posit": 3515,
      "▁quad": 3516,
      "▁Federal": 3517,
      "essor": 3518,
      "▁0,": 3519,
      "▁tiv": 3520,
      "▁categ": 3521,
      "cent": 3522,
      "▁relat": 3523,
      "▁obter": 3524,
      "▁cart": 3525,
      "▁camp": 3526,
      "▁-lo": 3527,
      "\nEm": 3528,
      "on,": 3529,
      "▁esses": 3530,
      "24": 3531,
      "▁substitu": 3532,
      "▁ado": 3533,
      "▁(n": 3534,
      "▁flo": 3535,
      "▁edição": 3536,
      "9.": 3537,
      "▁jogos": 3538,
      "anho": 3539,
      "▁ações": 3540,
      "-0": 3541,
      "▁influ": 3542,
      "ipal": 3543,
      "ites": 3544,
      "\nFilmes": 3545,
      "▁TV": 3546,
      "▁ating": 3547,
      "▁terra": 3548,
      "rv": 3549,
      "▁indic": 3550,
      "ep": 3551,
      "▁numa": 3552,
      "▁frequ": 3553,
      "tiv": 3554,
      "▁...": 3555,
      "ama": 3556,
      "▁</s>\n": 3557,
      "▁desemp": 3558,
      "▁institu": 3559,
      "▁carreira": 3560,
      "▁mã": 3561,
      "arg": 3562,
      "▁ambiente": 3563,
      "\nG": 3564,
      "strong": 3565,
      "▁fís": 3566,
      "ada.": 3567,
      "▁política": 3568,
      "radas": 3569,
      "over": 3570,
      "atalha": 3571,
      "▁revel": 3572,
      "▁contribu": 3573,
      "▁atualiz": 3574,
      "rie": 3575,
      "\nV": 3576,
      "-c": 3577,
      "▁Guerra": 3578,
      "▁just": 3579,
      "▁dirig": 3580,
      "▁ef": 3581,
      "▁candid": 3582,
      "▁entrada": 3583,
      "▁Santa": 3584,
      "ames": 3585,
      "▁estavam": 3586,
      "▁principalmente": 3587,
      "eliz": 3588,
      "icas,": 3589,
      ".\nD": 3590,
      "▁plane": 3591,
      "▁essas": 3592,
      "▁boa": 3593,
      "ratég": 3594,
      "▁Copa": 3595,
      "▁alta": 3596,
      "▁ação": 3597,
      "▁\"T": 3598,
      "▁ace": 3599,
      "▁confor": 3600,
      "▁Mund": 3601,
      "▁cient": 3602,
      "▁controle": 3603,
      "▁nat": 3604,
      "View": 3605,
      "▁novas": 3606,
      "idos,": 3607,
      "rás": 3608,
      "▁aplicativo": 3609,
      "▁espécie": 3610,
      "▁respo": 3611,
      "13": 3612,
      "ulares": 3613,
      "▁It": 3614,
      "▁dele": 3615,
      "▁coisa": 3616,
      "ico.": 3617,
      "▁seman": 3618,
      "▁Cap": 3619,
      "▁telev": 3620,
      "▁posição": 3621,
      "uais": 3622,
      "▁Munic": 3623,
      "att": 3624,
      "▁();\n": 3625,
      "ight": 3626,
      "▁quant": 3627,
      "adamente": 3628,
      "▁ajuda": 3629,
      "▁diferente": 3630,
      "▁respe": 3631,
      "ifique": 3632,
      "▁atual": 3633,
      "▁devem": 3634,
      "▁inicial": 3635,
      "\":": 3636,
      "âmara": 3637,
      "▁atividades": 3638,
      "utos": 3639,
      "OM": 3640,
      "▁recu": 3641,
      "AM": 3642,
      "eleção": 3643,
      "▁autom": 3644,
      "ume": 3645,
      "▁1,": 3646,
      "▁manter": 3647,
      "▁Ig": 3648,
      "▁construção": 3649,
      "▁Fo": 3650,
      "▁tam": 3651,
      "▁ráp": 3652,
      "▁favor": 3653,
      "▁necessário": 3654,
      "ref": 3655,
      "ografia": 3656,
      "terior": 3657,
      "▁Part": 3658,
      "▁ficar": 3659,
      "▁lín": 3660,
      "▁recebeu": 3661,
      "us,": 3662,
      "80": 3663,
      "ith": 3664,
      "17": 3665,
      "▁org": 3666,
      "strong>": 3667,
      "rag": 3668,
      "pp": 3669,
      "\nEu": 3670,
      "▁comunic": 3671,
      "s://": 3672,
      "▁Rep": 3673,
      "▁alun": 3674,
      "▁perceb": 3675,
      "▁prat": 3676,
      ".s": 3677,
      "osse": 3678,
      "pressão": 3679,
      "▁mulheres": 3680,
      "▁mês": 3681,
      "▁Pres": 3682,
      "lém": 3683,
      "▁lhe": 3684,
      "eter": 3685,
      "▁bene": 3686,
      "▁cha": 3687,
      "▁banda": 3688,
      "▁tentar": 3689,
      ".S": 3690,
      "ala": 3691,
      "):": 3692,
      "úst": 3693,
      "re,": 3694,
      "portun": 3695,
      "▁noite": 3696,
      "▁dim": 3697,
      "▁complet": 3698,
      "▁gost": 3699,
      "▁br": 3700,
      "▁aleg": 3701,
      "▁embora": 3702,
      "idores": 3703,
      "▁adv": 3704,
      "▁\nO": 3705,
      "áss": 3706,
      "▁comum": 3707,
      "▁viu": 3708,
      "▁centro": 3709,
      "TE": 3710,
      "▁realmente": 3711,
      "iências": 3712,
      "▁Você": 3713,
      "▁tip": 3714,
      "F1\n|": 3715,
      "uras": 3716,
      "F1F1F1\n|": 3717,
      "▁estad": 3718,
      "ild": 3719,
      "▁Ela": 3720,
      "▁pac": 3721,
      "▁força": 3722,
      "izado": 3723,
      "▁crim": 3724,
      "▁design": 3725,
      "IA": 3726,
      "▁26": 3727,
      "ola": 3728,
      "▁enfrent": 3729,
      "▁\"C": 3730,
      "▁anal": 3731,
      "▁sociais": 3732,
      "▁obra": 3733,
      "▁27": 3734,
      "▁Quando": 3735,
      "▁compart": 3736,
      "órios": 3737,
      "▁permanec": 3738,
      "▁decid": 3739,
      "▁bgcolor=#F1F1F1\n|": 3740,
      "▁EU": 3741,
      "▁parc": 3742,
      "▁mult": 3743,
      "onst": 3744,
      "▁vi": 3745,
      "▁viol": 3746,
      "▁Mundial": 3747,
      "▁fazendo": 3748,
      "idar": 3749,
      "▁obrig": 3750,
      "▁detalh": 3751,
      "-m": 3752,
      "▁John": 3753,
      "▁dizer": 3754,
      "uk": 3755,
      "▁modo": 3756,
      "▁semana": 3757,
      "▁reduz": 3758,
      "▁pat": 3759,
      "▁http": 3760,
      "▁jornal": 3761,
      "▁ade": 3762,
      "ago": 3763,
      "▁ur": 3764,
      "▁deu": 3765,
      "ré": 3766,
      "▁Bro": 3767,
      "▁fiz": 3768,
      "▁Ro": 3769,
      "▁resultados": 3770,
      "▁28": 3771,
      ".\n\nT": 3772,
      "▁Fac": 3773,
      "▁histór": 3774,
      "▁serão": 3775,
      "RE": 3776,
      "▁Med": 3777,
      "▁usado": 3778,
      "ínio": 3779,
      "▁pesquisa": 3780,
      "▁guerra": 3781,
      "▁Isso": 3782,
      "las": 3783,
      "amento,": 3784,
      "ísticas": 3785,
      "▁tax": 3786,
      "enda": 3787,
      "▁Be": 3788,
      "uz": 3789,
      "▁apoio": 3790,
      "▁coz": 3791,
      "▁mem": 3792,
      "▁\"S": 3793,
      "▁nossos": 3794,
      "ativas": 3795,
      "▁quest": 3796,
      "▁den": 3797,
      "▁trein": 3798,
      "▁gên": 3799,
      ".\n\nVer": 3800,
      "▁II": 3801,
      "êmio": 3802,
      "ação.": 3803,
      "cre": 3804,
      "▁bot": 3805,
      "▁chamada": 3806,
      "▁\"E": 3807,
      "▁última": 3808,
      "ônio": 3809,
      "▁último": 3810,
      "▁Lei": 3811,
      ".\nT": 3812,
      "▁idioma": 3813,
      "ys": 3814,
      "▁caval": 3815,
      "▁Alem": 3816,
      "íg": 3817,
      ".\n\nLigações": 3818,
      "▁nenhum": 3819,
      "▁objeto": 3820,
      "▁sul": 3821,
      "▁bastante": 3822,
      "▁fornecer": 3823,
      "low": 3824,
      "▁países": 3825,
      "▁Norte": 3826,
      "edad": 3827,
      "INE": 3828,
      "aca": 3829,
      "ivamente": 3830,
      "RO": 3831,
      "▁década": 3832,
      "▁morre": 3833,
      "ois": 3834,
      "▁sel": 3835,
      "▁América": 3836,
      "▁2010": 3837,
      "▁forte": 3838,
      "▁solic": 3839,
      "-A": 3840,
      "ole": 3841,
      "▁ocup": 3842,
      "idade.": 3843,
      "▁Mil": 3844,
      "▁Super": 3845,
      "▁vari": 3846,
      "ham": 3847,
      "▁Campeonato": 3848,
      "gues": 3849,
      "rap": 3850,
      "27": 3851,
      "▁oportun": 3852,
      "▁Sec": 3853,
      "▁Rod": 3854,
      "▁sabia": 3855,
      "pas": 3856,
      "edor": 3857,
      "ador,": 3858,
      "▁Ang": 3859,
      "respo": 3860,
      "▁capital": 3861,
      "uí": 3862,
      "▁presente": 3863,
      ".j": 3864,
      "▁causa": 3865,
      "▁exig": 3866,
      "▁próximo": 3867,
      ".\n\nB": 3868,
      "▁pint": 3869,
      "ére": 3870,
      "▁garantir": 3871,
      "▁único": 3872,
      "▁(m": 3873,
      "idência": 3874,
      "/20": 3875,
      "26": 3876,
      "rei": 3877,
      "▁Brasil,": 3878,
      "▁igu": 3879,
      "▁cost": 3880,
      "▁envi": 3881,
      "▁Comp": 3882,
      "-C": 3883,
      "FA\n|": 3884,
      "Não": 3885,
      "▁50": 3886,
      "FAFAFA\n|": 3887,
      "▁natural": 3888,
      "enn": 3889,
      "arem": 3890,
      "ivil": 3891,
      "▁dedic": 3892,
      "á,": 3893,
      "▁energia": 3894,
      "▁transform": 3895,
      "▁Minist": 3896,
      "▁mulher": 3897,
      "▁alcanç": 3898,
      "hando": 3899,
      "?\n": 3900,
      "▁significa": 3901,
      "▁busca": 3902,
      "ental": 3903,
      "▁vem": 3904,
      "▁áreas": 3905,
      "▁relig": 3906,
      "▁hora": 3907,
      "érc": 3908,
      "▁sin": 3909,
      "▁alto": 3910,
      "▁abord": 3911,
      "anta": 3912,
      "▁prepara": 3913,
      "▁bgcolor=#FAFAFA\n|": 3914,
      ".\nEm": 3915,
      "iça": 3916,
      "▁2008": 3917,
      "▁opções": 3918,
      "▁seg": 3919,
      "SS": 3920,
      "be": 3921,
      "▁página": 3922,
      "iores": 3923,
      "TO": 3924,
      "▁estim": 3925,
      "in,": 3926,
      "▁signific": 3927,
      "▁mag": 3928,
      ");": 3929,
      "eth": 3930,
      "emia": 3931,
      "ír": 3932,
      "en,": 3933,
      "ública": 3934,
      "▁explora": 3935,
      "-M": 3936,
      "▁anunc": 3937,
      "▁beleza": 3938,
      "▁29": 3939,
      "▁lei": 3940,
      "▁lançado": 3941,
      ".\n\nNo": 3942,
      "▁\"O": 3943,
      "▁modern": 3944,
      "▁Jogos": 3945,
      "▁estratég": 3946,
      "el,": 3947,
      "▁membros": 3948,
      "40": 3949,
      "ser": 3950,
      "ile": 3951,
      "▁meses": 3952,
      "▁Sou": 3953,
      "isód": 3954,
      "▁ferram": 3955,
      "▁distribu": 3956,
      "▁conjunto": 3957,
      "itando": 3958,
      "▁separa": 3959,
      "▁desse": 3960,
      "▁luta": 3961,
      "\n<": 3962,
      "▁human": 3963,
      "▁única": 3964,
      "y.": 3965,
      "ndia": 3966,
      "▁prest": 3967,
      "▁Will": 3968,
      "cho": 3969,
      "▁rece": 3970,
      "▁falta": 3971,
      "ware": 3972,
      "▁2016": 3973,
      "▁elementos": 3974,
      "lês": 3975,
      "▁árv": 3976,
      "▁2012": 3977,
      "▁crianças": 3978,
      "ett": 3979,
      "rac": 3980,
      "ndimento": 3981,
      "em,": 3982,
      "ados.": 3983,
      "quest": 3984,
      "Res": 3985,
      "▁abert": 3986,
      "▁dessa": 3987,
      "iste": 3988,
      "28": 3989,
      "99": 3990,
      "▁venc": 3991,
      "ndendo": 3992,
      "clus": 3993,
      "▁junto": 3994,
      "▁(c": 3995,
      "\nH": 3996,
      "▁direitos": 3997,
      "aran": 3998,
      "ituto": 3999,
      "ung": 4000,
      "ficiente": 4001,
      "▁Android": 4002,
      "\nEle": 4003,
      "▁2.": 4004,
      "▁voz": 4005,
      "▁Cha": 4006,
      "▁flu": 4007,
      "▁capacidade": 4008,
      "▁@": 4009,
      "▁independ": 4010,
      "▁brasileiro": 4011,
      "isl": 4012,
      "mar": 4013,
      "▁selecion": 4014,
      "▁(F": 4015,
      ".\n\nH": 4016,
      "▁correspo": 4017,
      "▁press": 4018,
      "resse": 4019,
      "partamento": 4020,
      "âne": 4021,
      "▁atenção": 4022,
      "ocup": 4023,
      "▁string": 4024,
      "▁contexto": 4025,
      "▁rei": 4026,
      "ull": 4027,
      "ém,": 4028,
      "▁maiores": 4029,
      "▁conce": 4030,
      "▁homens": 4031,
      "▁\"P": 4032,
      "quele": 4033,
      "▁condições": 4034,
      ");\n\n": 4035,
      "▁Socorro": 4036,
      "▁Reino": 4037,
      "▁lut": 4038,
      "itado": 4039,
      "ook": 4040,
      "k,": 4041,
      "▁Ra": 4042,
      ".M": 4043,
      "▁escola": 4044,
      "▁(B": 4045,
      "act": 4046,
      "▁declara": 4047,
      "▁envolv": 4048,
      "▁\"M": 4049,
      "bra": 4050,
      "▁extra": 4051,
      "▁constitu": 4052,
      "▁2018": 4053,
      "▁seguir": 4054,
      "EC": 4055,
      "intes": 4056,
      "ibliotec": 4057,
      "vis": 4058,
      "29": 4059,
      "▁anál": 4060,
      "lat": 4061,
      "▁la": 4062,
      "elmente": 4063,
      "▁chegou": 4064,
      "ias,": 4065,
      "mail": 4066,
      "▁nave": 4067,
      "anças": 4068,
      "americ": 4069,
      "ka": 4070,
      "RA": 4071,
      "▁eta": 4072,
      "\nPara": 4073,
      "uns": 4074,
      "ho,": 4075,
      "quia": 4076,
      "yst": 4077,
      "▁rom": 4078,
      "▁mund": 4079,
      "obre": 4080,
      "▁solução": 4081,
      "▁perde": 4082,
      "▁Nos": 4083,
      "estre": 4084,
      "▁profissionais": 4085,
      "▁Lis": 4086,
      "▁situação": 4087,
      "▁elas": 4088,
      "▁acompanh": 4089,
      "▁pais": 4090,
      "▁Cast": 4091,
      "▁LINE": 4092,
      "\nCom": 4093,
      "▁alem": 4094,
      "▁batalha": 4095,
      "ale": 4096,
      "ache": 4097,
      "ld": 4098,
      "▁prop": 4099,
      "▁assoc": 4100,
      "▁olhos": 4101,
      "▁LINEAR": 4102,
      "vez": 4103,
      "pr": 4104,
      "▁Ind": 4105,
      "▁livros": 4106,
      "▁eleito": 4107,
      "▁logo": 4108,
      "▁acima": 4109,
      "▁40": 4110,
      "▁Bol": 4111,
      "▁circ": 4112,
      "▁povo": 4113,
      "▁popular": 4114,
      "▁Tem": 4115,
      "▁Ao": 4116,
      "▁Kitt": 4117,
      "▁mand": 4118,
      "▁2013": 4119,
      "ribun": 4120,
      "▁agra": 4121,
      "▁disp": 4122,
      "▁visão": 4123,
      "ket": 4124,
      "▁passar": 4125,
      "▁sai": 4126,
      "▁2011": 4127,
      "▁lat": 4128,
      "▁interpre": 4129,
      "icl": 4130,
      "riu": 4131,
      "▁televisão": 4132,
      "▁comando": 4133,
      "-S": 4134,
      "▁desaf": 4135,
      "ística": 4136,
      "▁foto": 4137,
      "ke": 4138,
      "▁(T": 4139,
      "imento,": 4140,
      "▁companh": 4141,
      "oriz": 4142,
      "▁Mont": 4143,
      "▁Spac": 4144,
      "▁dá": 4145,
      "imas": 4146,
      "▁profund": 4147,
      "▁diretor": 4148,
      "▁Alemanha": 4149,
      "▁Ser": 4150,
      "▁Mic": 4151,
      "▁2014": 4152,
      "▁Sol": 4153,
      "ídu": 4154,
      "▁derro": 4155,
      "ást": 4156,
      "▁Peak": 4157,
      "▁Art": 4158,
      "alidade": 4159,
      "60": 4160,
      "▁2017": 4161,
      "▁hou": 4162,
      "omas": 4163,
      "E3E3E3": 4164,
      "E3E3E3\n|": 4165,
      "▁escreve": 4166,
      "▁territ": 4167,
      "▁produto": 4168,
      "▁opção": 4169,
      "cola": 4170,
      "anhã": 4171,
      "▁possa": 4172,
      "▁criação": 4173,
      "▁cliente": 4174,
      "elig": 4175,
      "▁compara": 4176,
      ".com/": 4177,
      "etros": 4178,
      "enos": 4179,
      "▁época": 4180,
      "▁primeiros": 4181,
      "\n\nVersículo": 4182,
      "▁ano,": 4183,
      "ritân": 4184,
      "▁jur": 4185,
      "EL": 4186,
      "▁2007": 4187,
      "▁direção": 4188,
      "eng": 4189,
      "ley": 4190,
      "▁Mart": 4191,
      "▁recupera": 4192,
      "ímpicos": 4193,
      "▁bgcolor=#E3E3E3\n|": 4194,
      "ência,": 4195,
      "ator": 4196,
      "w.": 4197,
      "orge": 4198,
      "ilidades": 4199,
      "▁fol": 4200,
      "ese": 4201,
      "▁novamente": 4202,
      "▁eventos": 4203,
      "▁Fern": 4204,
      "plic": 4205,
      "▁Har": 4206,
      "▁serem": 4207,
      "▁ne": 4208,
      "▁clientes": 4209,
      "▁2015": 4210,
      "▁Ing": 4211,
      "EM": 4212,
      "ner": 4213,
      "▁marca": 4214,
      "▁geralmente": 4215,
      "rid": 4216,
      "▁dura": 4217,
      "▁elei": 4218,
      "▁fosse": 4219,
      "ewatch": 4220,
      "▁escre": 4221,
      "▁Spacewatch": 4222,
      "▁Q": 4223,
      "▁exerc": 4224,
      "▁Rev": 4225,
      "▁Fer": 4226,
      "▁new": 4227,
      "▁(R": 4228,
      "▁2019": 4229,
      "▁preciso": 4230,
      "▁habitantes": 4231,
      "▁nature": 4232,
      "ST": 4233,
      "▁seis": 4234,
      "▁banco": 4235,
      "▁perto": 4236,
      "resso": 4237,
      "▁2009": 4238,
      "rios": 4239,
      "▁log": 4240,
      "▁movimento": 4241,
      "▁He": 4242,
      "▁Carlos": 4243,
      "▁eng": 4244,
      "▁econôm": 4245,
      "▁minist": 4246,
      "▁Me": 4247,
      "▁tempo,": 4248,
      "▁fundo": 4249,
      "▁compos": 4250,
      "jas": 4251,
      "▁dific": 4252,
      "▁mensagem": 4253,
      "▁aprov": 4254,
      "isso": 4255,
      "ácil": 4256,
      "erson": 4257,
      "ogle": 4258,
      "▁hosp": 4259,
      "▁superior": 4260,
      "ios,": 4261,
      ":\n\n``": 4262,
      "▁sociedade": 4263,
      "▁Fre": 4264,
      "▁2006": 4265,
      "▁if": 4266,
      "▁tipos": 4267,
      "▁ruas": 4268,
      "▁Bl": 4269,
      "▁altern": 4270,
      "▁(d": 4271,
      "▁ordem": 4272,
      "-P": 4273,
      "▁nasc": 4274,
      "áticas": 4275,
      "\n\nS": 4276,
      "▁mostra": 4277,
      "▁casos": 4278,
      "▁permite": 4279,
      "▁contato": 4280,
      "▁presença": 4281,
      "▁lidera": 4282,
      "▁pré": 4283,
      "▁Porto": 4284,
      "▁Mat": 4285,
      "▁posit": 4286,
      "íb": 4287,
      "▁curso": 4288,
      "ante,": 4289,
      "▁locais": 4290,
      "▁poderá": 4291,
      "▁existe": 4292,
      "▁Prim": 4293,
      "▁preocup": 4294,
      "▁recome": 4295,
      "én": 4296,
      "▁armaz": 4297,
      "▁Just": 4298,
      "▁show": 4299,
      "▁Saúde": 4300,
      "▁cum": 4301,
      "uito": 4302,
      "▁compartilh": 4303,
      "▁tele": 4304,
      "▁receber": 4305,
      "▁diversos": 4306,
      "yl": 4307,
      "▁padrão": 4308,
      "ror": 4309,
      "▁capaz": 4310,
      "▁conquist": 4311,
      "▁tornou": 4312,
      "▁deles": 4313,
      "-B": 4314,
      "ext": 4315,
      "▁Centro": 4316,
      "▁univers": 4317,
      "▁conhecimento": 4318,
      "▁temos": 4319,
      "▁diversas": 4320,
      "▁Frank": 4321,
      ".No": 4322,
      "gens": 4323,
      "”,": 4324,
      "88": 4325,
      "IM": 4326,
      "▁alguém": 4327,
      "-n": 4328,
      "▁episód": 4329,
      "▁adequ": 4330,
      "▁abaixo": 4331,
      "90": 4332,
      "▁Entre": 4333,
      "▁(D": 4334,
      "rupo": 4335,
      "▁propriedade": 4336,
      "▁sabe": 4337,
      "▁Câmara": 4338,
      "▁exclus": 4339,
      "ones": 4340,
      "▁Ben": 4341,
      "rát": 4342,
      "▁vão": 4343,
      "▁ó": 4344,
      "▁pública": 4345,
      "▁clube": 4346,
      "▁falar": 4347,
      "omb": 4348,
      ".\n\nL": 4349,
      "▁vista": 4350,
      "▁oferece": 4351,
      "▁orient": 4352,
      "ícil": 4353,
      "\nUm": 4354,
      ".\nF": 4355,
      "▁(E": 4356,
      "==": 4357,
      "an,": 4358,
      "▁assum": 4359,
      "▁compre": 4360,
      "▁porta": 4361,
      "▁gere": 4362,
      "-americ": 4363,
      "rt": 4364,
      "▁Tur": 4365,
      "▁Af": 4366,
      "▁plano": 4367,
      "45": 4368,
      "gas": 4369,
      "▁complex": 4370,
      "▁Char": 4371,
      "eração": 4372,
      "▁beb": 4373,
      "▁rot": 4374,
      "▁medida": 4375,
      "mento": 4376,
      "**": 4377,
      "▁Esta": 4378,
      "▁evitar": 4379,
      "▁questão": 4380,
      "asso": 4381,
      "apa": 4382,
      "▁Lem": 4383,
      "▁si": 4384,
      "ha,": 4385,
      "▁peg": 4386,
      "by": 4387,
      "▁sentiu": 4388,
      "▁Serv": 4389,
      "cel": 4390,
      "ônia": 4391,
      "ritos": 4392,
      "▁pertenc": 4393,
      "ws": 4394,
      "▁\n\nA": 4395,
      "ish": 4396,
      "▁língua": 4397,
      "▁femin": 4398,
      "▁raz": 4399,
      "▁plata": 4400,
      "ardo": 4401,
      "fin": 4402,
      "iciais": 4403,
      "rel": 4404,
      "ética": 4405,
      "33": 4406,
      "eias": 4407,
      "▁san": 4408,
      "▁futuro": 4409,
      "▁preço": 4410,
      "rec": 4411,
      "▁importantes": 4412,
      "▁Dav": 4413,
      "IL": 4414,
      "▁fase": 4415,
      "Im": 4416,
      "▁difícil": 4417,
      "sc": 4418,
      "▁Vol": 4419,
      "sol": 4420,
      "▁Educ": 4421,
      "▁organização": 4422,
      "▁Mount": 4423,
      "almente,": 4424,
      "div": 4425,
      "▁resta": 4426,
      "▁vot": 4427,
      "▁ambient": 4428,
      "▁Av": 4429,
      "feitos": 4430,
      "▁inglês": 4431,
      "rer": 4432,
      "vam": 4433,
      "▁post": 4434,
      "▁fech": 4435,
      "ET": 4436,
      ".,": 4437,
      "▁Pra": 4438,
      "Segu": 4439,
      "▁grupos": 4440,
      ".\nOs": 4441,
      "▁brilha": 4442,
      "▁tradic": 4443,
      "▁sejam": 4444,
      "▁fácil": 4445,
      "▁jan": 4446,
      "▁bal": 4447,
      "▁famos": 4448,
      "▁vídeo": 4449,
      "irar": 4450,
      "▁adm": 4451,
      "ço,": 4452,
      "▁reserv": 4453,
      "▁deixou": 4454,
      "▁participação": 4455,
      "▁facil": 4456,
      "ido.": 4457,
      "▁livre": 4458,
      "arav": 4459,
      "uel": 4460,
      "▁risco": 4461,
      "orden": 4462,
      "leo": 4463,
      "▁altura": 4464,
      "▁aumento": 4465,
      "▁tamanho": 4466,
      "▁blo": 4467,
      "iso": 4468,
      "abric": 4469,
      "ânt": 4470,
      "▁Hen": 4471,
      "▁ex-": 4472,
      "▁seja,": 4473,
      "▁ros": 4474,
      "io.": 4475,
      "Id": 4476,
      "▁Ev": 4477,
      "▁time": 4478,
      "sh": 4479,
      "▁levar": 4480,
      "▁tor": 4481,
      "▁Igreja": 4482,
      "▁2005": 4483,
      "xo": 4484,
      "▁conhecida": 4485,
      "acionais": 4486,
      "unas": 4487,
      "▁tri": 4488,
      "▁rio": 4489,
      "▁Sua": 4490,
      "▁figu": 4491,
      "ir,": 4492,
      "▁importância": 4493,
      "▁caminh": 4494,
      "\">": 4495,
      "▁seguintes": 4496,
      "▁decisão": 4497,
      "▁mort": 4498,
      "▁Sim": 4499,
      "▁próxim": 4500,
      "▁Sem": 4501,
      "hou": 4502,
      "IT": 4503,
      "▁confirm": 4504,
      "▁comport": 4505,
      "▁mass": 4506,
      "ves": 4507,
      "▁fundament": 4508,
      "▁(L": 4509,
      "▁Jul": 4510,
      "úv": 4511,
      "uldade": 4512,
      "▁control": 4513,
      "uas": 4514,
      "▁divulg": 4515,
      "▁York": 4516,
      "AC": 4517,
      "yle": 4518,
      "▁(t": 4519,
      "íncia": 4520,
      ".\n*": 4521,
      "ecut": 4522,
      "▁Gal": 4523,
      "▁trabalhar": 4524,
      "ras,": 4525,
      "▁carro": 4526,
      "▁arm": 4527,
      "i-": 4528,
      "eck": 4529,
      "▁jogador": 4530,
      "▁tornar": 4531,
      "▁atra": 4532,
      "▁filmes": 4533,
      "▁etc": 4534,
      "ativos": 4535,
      "uf": 4536,
      "▁chegar": 4537,
      "▁investig": 4538,
      "▁promo": 4539,
      "▁vou": 4540,
      "ite,": 4541,
      "▁sat": 4542,
      "éis": 4543,
      "bora": 4544,
      "▁estudo": 4545,
      "rb": 4546,
      "ivo,": 4547,
      "▁existem": 4548,
      "▁Govern": 4549,
      "ipl": 4550,
      "▁toc": 4551,
      "▁ps": 4552,
      "▁responsável": 4553,
      "▁Lisbo": 4554,
      "▁sing": 4555,
      "▁verdade": 4556,
      "▁Mac": 4557,
      "▁gal": 4558,
      "iante": 4559,
      "▁impos": 4560,
      "▁Not": 4561,
      "OL": 4562,
      "etrôn": 4563,
      "▁somente": 4564,
      "anda": 4565,
      "ing,": 4566,
      "▁Depois": 4567,
      "▁Sch": 4568,
      "cem": 4569,
      "ídos": 4570,
      "▁assin": 4571,
      "▁Secret": 4572,
      "▁Espanha": 4573,
      "▁bair": 4574,
      "▁personagem": 4575,
      "do,": 4576,
      "▁material": 4577,
      ".\nPara": 4578,
      "▁2021": 4579,
      "acto": 4580,
      "▁formação": 4581,
      "írito": 4582,
      "▁web": 4583,
      "able": 4584,
      "▁(201": 4585,
      "▁IA,": 4586,
      "▁disposit": 4587,
      "éria": 4588,
      "p.": 4589,
      "▁França": 4590,
      "my": 4591,
      "▁corret": 4592,
      "▁(f": 4593,
      "▁Internacional": 4594,
      "idamente": 4595,
      "ield": 4596,
      "▁terá": 4597,
      "iliar": 4598,
      "▁origem": 4599,
      "▁campanha": 4600,
      "▁imagens": 4601,
      "ray": 4602,
      "▁ada": 4603,
      "▁dia,": 4604,
      "▁somb": 4605,
      "▁ge": 4606,
      "essão": 4607,
      "▁You": 4608,
      "▁cen": 4609,
      "ranco": 4610,
      "▁Ca": 4611,
      "▁média": 4612,
      "éu": 4613,
      "▁gente": 4614,
      "▁contrat": 4615,
      "▁possu": 4616,
      "▁inclus": 4617,
      "▁tratamento": 4618,
      "▁tentando": 4619,
      "▁EUA": 4620,
      "▁Jap": 4621,
      "ail": 4622,
      "▁Pat": 4623,
      "ía": 4624,
      "▁vel": 4625,
      "▁desej": 4626,
      "▁Alex": 4627,
      "aturais": 4628,
      "▁varia": 4629,
      "▁União": 4630,
      "ático": 4631,
      "▁Instituto": 4632,
      "▁fonte": 4633,
      "▁Mais": 4634,
      "▁sint": 4635,
      "pção": 4636,
      "▁armazen": 4637,
      "▁Crie": 4638,
      "▁tecnologia": 4639,
      "gn": 4640,
      "itude": 4641,
      "▁entrev": 4642,
      "▁Glob": 4643,
      "▁Francisco": 4644,
      "feitura": 4645,
      "▁divid": 4646,
      "▁quero": 4647,
      "▁Bra": 4648,
      "▁própri": 4649,
      "ções,": 4650,
      "▁disput": 4651,
      "Pro": 4652,
      "▁Jes": 4653,
      "▁Ph": 4654,
      "64": 4655,
      "▁máqu": 4656,
      "▁distrito": 4657,
      "▁190": 4658,
      "▁entrar": 4659,
      "▁Dom": 4660,
      "▁feita": 4661,
      "▁2,": 4662,
      "▁Lib": 4663,
      "portar": 4664,
      "https://": 4665,
      "▁nesse": 4666,
      "gos": 4667,
      "▁comunidade": 4668,
      "▁Mag": 4669,
      "▁For": 4670,
      "▁pequena": 4671,
      "umo": 4672,
      "35": 4673,
      "▁pequeno": 4674,
      "cons": 4675,
      "s:": 4676,
      "▁Cur": 4677,
      "▁comercial": 4678,
      "▁últimos": 4679,
      "▁longa": 4680,
      "2)": 4681,
      "▁assim,": 4682,
      "▁depe": 4683,
      "▁arquit": 4684,
      "▁Também": 4685,
      "▁minutos": 4686,
      "▁William": 4687,
      "▁arquivos": 4688,
      "▁ór": 4689,
      "rol": 4690,
      "▁Alb": 4691,
      "▁águ": 4692,
      "ino,": 4693,
      "▁propor": 4694,
      "orld": 4695,
      "]\n": 4696,
      "▁nenhuma": 4697,
      "center": 4698,
      "add": 4699,
      "70": 4700,
      "▁saída": 4701,
      "▁seguida,": 4702,
      "eir": 4703,
      "▁Aust": 4704,
      "85": 4705,
      "ãs": 4706,
      "eios": 4707,
      "▁Municipal": 4708,
      "▁IS": 4709,
      "vendo": 4710,
      "▁lançamento": 4711,
      "ínc": 4712,
      "▁conseguiu": 4713,
      "▁Estou": 4714,
      "▁levou": 4715,
      "▁necessidade": 4716,
      "▁Ho": 4717,
      "▁Futebol": 4718,
      "isa": 4719,
      "▁avanç": 4720,
      "sequ": 4721,
      "▁metros": 4722,
      "▁comput": 4723,
      "▁ót": 4724,
      "▁localizada": 4725,
      "▁colet": 4726,
      "▁dupl": 4727,
      "▁matriz": 4728,
      "▁cobert": 4729,
      "▁refer": 4730,
      "▁jogadores": 4731,
      "▁termos": 4732,
      "▁Após": 4733,
      "▁informação": 4734,
      "▁Mal": 4735,
      "pol": 4736,
      "sta": 4737,
      "▁Atu": 4738,
      "enco": 4739,
      "peão": 4740,
      "▁crit": 4741,
      "Referências": 4742,
      "cionais": 4743,
      "▁vitória": 4744,
      "▁conclu": 4745,
      "-feira,": 4746,
      "ium": 4747,
      "▁encontrou": 4748,
      "▁aprend": 4749,
      "▁internacional": 4750,
      "▁atividade": 4751,
      ".D": 4752,
      "cas": 4753,
      "89": 4754,
      "istem": 4755,
      "ioso": 4756,
      "gent": 4757,
      "▁crescimento": 4758,
      "▁dúv": 4759,
      "▁Hol": 4760,
      "▁cidades": 4761,
      "▁On": 4762,
      "▁Pedro": 4763,
      "▁deb": 4764,
      "▁Mc": 4765,
      "▁surg": 4766,
      "▁sug": 4767,
      "▁refere": 4768,
      "▁Casa": 4769,
      "ward": 4770,
      "▁interv": 4771,
      "▁AP": 4772,
      "rativa": 4773,
      "▁lar": 4774,
      "utebolistas": 4775,
      "to,": 4776,
      "?\n\n": 4777,
      "▁famíl": 4778,
      "ream": 4779,
      "▁Lemmon": 4780,
      "▁secret": 4781,
      "▁Luc": 4782,
      "▁categoria": 4783,
      "▁deput": 4784,
      "▁rela": 4785,
      "▁mão": 4786,
      "redo": 4787,
      "▁particular": 4788,
      "▁Ter": 4789,
      "▁Il": 4790,
      "ército": 4791,
      "▁vest": 4792,
      "▁visit": 4793,
      "f.": 4794,
      "▁ig": 4795,
      "▁gênero": 4796,
      "ize": 4797,
      "▁membro": 4798,
      "▁sede": 4799,
      "▁podemos": 4800,
      "Que": 4801,
      "▁sáb": 4802,
      "▁vamos": 4803,
      ">\n<": 4804,
      "▁muita": 4805,
      "▁tabela": 4806,
      "▁especialmente": 4807,
      "▁D.": 4808,
      "▁mãe": 4809,
      "▁demais": 4810,
      "▁resist": 4811,
      "IV": 4812,
      "▁Ministério": 4813,
      "▁document": 4814,
      "▁Di": 4815,
      "▁notícias": 4816,
      "▁(199": 4817,
      "▁desempenho": 4818,
      "▁Mundo": 4819,
      "omar": 4820,
      "load": 4821,
      "tra": 4822,
      "▁escrito": 4823,
      "ÇÃO": 4824,
      "▁tend": 4825,
      "US": 4826,
      "▁esfor": 4827,
      "ft": 4828,
      "86": 4829,
      "em.": 4830,
      "▁Div": 4831,
      "▁pers": 4832,
      "▁San": 4833,
      "▁teria": 4834,
      "irma": 4835,
      "▁contém": 4836,
      "entes,": 4837,
      "orias": 4838,
      "ider": 4839,
      "▁ideia": 4840,
      "▁</s>": 4841,
      "▁certe": 4842,
      "▁ensino": 4843,
      "▁anos.": 4844,
      "▁retornar": 4845,
      "res.": 4846,
      "▁Í": 4847,
      "▁desl": 4848,
      "▁individ": 4849,
      "▁apesar": 4850,
      "ilhas": 4851,
      "oma": 4852,
      "▁ame": 4853,
      "▁mor": 4854,
      "▁realizar": 4855,
      "▁problem": 4856,
      "▁ganhou": 4857,
      "▁Dan": 4858,
      "▁meus": 4859,
      ".\n\n\"": 4860,
      "▁blog": 4861,
      "▁Mon": 4862,
      "▁menor": 4863,
      "▁2004": 4864,
      "▁crist": 4865,
      "▁britân": 4866,
      "▁cul": 4867,
      "▁professor": 4868,
      "ien": 4869,
      "udio": 4870,
      "▁colabora": 4871,
      "▁Liv": 4872,
      "▁sust": 4873,
      "▁linhas": 4874,
      "ps": 4875,
      "abel": 4876,
      "▁sentir": 4877,
      "Ex": 4878,
      "▁202": 4879,
      "▁servidor": 4880,
      "▁href": 4881,
      "á-lo": 4882,
      "▁comprar": 4883,
      "▁prática": 4884,
      "▁baixo": 4885,
      "▁quarta": 4886,
      "etra": 4887,
      "inham": 4888,
      "▁online": 4889,
      "▁comprom": 4890,
      "▁Amb": 4891,
      "read": 4892,
      "erais": 4893,
      "▁português": 4894,
      "\n\"": 4895,
      "ped": 4896,
      "▁semelha": 4897,
      "▁setor": 4898,
      "▁Red": 4899,
      "graf": 4900,
      "eses": 4901,
      "▁teste": 4902,
      "▁tare": 4903,
      "ribunal": 4904,
      "▁acus": 4905,
      "ano,": 4906,
      "reto": 4907,
      ".\nNo": 4908,
      "iança": 4909,
      "▁aument": 4910,
      "▁Atl": 4911,
      "▁benef": 4912,
      "▁Her": 4913,
      "fera": 4914,
      "▁máx": 4915,
      "ústria": 4916,
      "izada": 4917,
      "▁certo": 4918,
      "▁Ban": 4919,
      "align": 4920,
      "udo,": 4921,
      "▁argum": 4922,
      "▁ven": 4923,
      "▁eletrôn": 4924,
      "▁%": 4925,
      "▁imed": 4926,
      "aç": 4927,
      "▁redes": 4928,
      "▁estamos": 4929,
      "▁cidade,": 4930,
      "▁telef": 4931,
      "▁(em": 4932,
      "▁bas": 4933,
      "▁Cruz": 4934,
      "\nSe": 4935,
      "▁2001": 4936,
      "▁viaj": 4937,
      "yn": 4938,
      "▁din": 4939,
      "▁opin": 4940,
      "▁link": 4941,
      "▁Dr.": 4942,
      "37": 4943,
      "▁demonst": 4944,
      "▁negóc": 4945,
      "▁educação": 4946,
      "▁visto": 4947,
      "▁Sam": 4948,
      "▁realizado": 4949,
      "ugu": 4950,
      "▁sequ": 4951,
      "crição": 4952,
      "▁cabeça": 4953,
      "▁\"D": 4954,
      "▁apresenta": 4955,
      "\nVocê": 4956,
      "▁potencial": 4957,
      "▁próxima": 4958,
      "enhor": 4959,
      "▁pergunta": 4960,
      "▁interesse": 4961,
      "arda": 4962,
      "▁índ": 4963,
      ".Em": 4964,
      "▁projetos": 4965,
      "▁entender": 4966,
      "▁Dis": 4967,
      "edades": 4968,
      "87": 4969,
      "▁levant": 4970,
      "▁ital": 4971,
      "▁detalhes": 4972,
      "▁cres": 4973,
      "-de": 4974,
      "tando": 4975,
      "yth": 4976,
      "▁marav": 4977,
      "▁Mod": 4978,
      "▁afirmou": 4979,
      "ender": 4980,
      "▁memória": 4981,
      "▁mim": 4982,
      "▁Esc": 4983,
      "▁31": 4984,
      "\")": 4985,
      "▁Cab": 4986,
      "▁pessoal": 4987,
      "▁alunos": 4988,
      "▁Paulo,": 4989,
      "34": 4990,
      "cess": 4991,
      "enciais": 4992,
      "uções": 4993,
      "36": 4994,
      "▁passado": 4995,
      "ood": 4996,
      "oro:": 4997,
      "nta": 4998,
      "▁glob": 4999,
      "▁her": 5000,
      "▁Gr": 5001,
      "íder": 5002,
      "55": 5003,
      "ald": 5004,
      "gresso": 5005,
      "idas,": 5006,
      "▁República": 5007,
      "www.": 5008,
      "utor": 5009,
      "adas.": 5010,
      "▁Já": 5011,
      "urn": 5012,
      "▁Leg": 5013,
      "▁manif": 5014,
      "▁usuários": 5015,
      "▁naveg": 5016,
      "alha": 5017,
      "▁pen": 5018,
      "▁Conselho": 5019,
      "▁quantidade": 5020,
      "eças": 5021,
      "▁Itál": 5022,
      "▁Lou": 5023,
      "▁Seu": 5024,
      "▁histórias": 5025,
      "\nDe": 5026,
      "▁Cultura": 5027,
      "mand": 5028,
      "▁imag": 5029,
      "▁Je": 5030,
      "▁professo": 5031,
      "▁::": 5032,
      "▁Terra": 5033,
      "▁análise": 5034,
      "a-se": 5035,
      "▁fazem": 5036,
      "▁estiver": 5037,
      "▁indivídu": 5038,
      "▁volt": 5039,
      "▁confl": 5040,
      "▁mec": 5041,
      "▁mudança": 5042,
      "guns": 5043,
      ".\n\nOs": 5044,
      "▁Bel": 5045,
      "▁central": 5046,
      "▁adicionar": 5047,
      "ais.": 5048,
      "▁mac": 5049,
      "atus": 5050,
      "▁militar": 5051,
      "que,": 5052,
      "▁esquer": 5053,
      "▁tema": 5054,
      "▁fabric": 5055,
      "1)": 5056,
      "▁Trabal": 5057,
      "▁concent": 5058,
      "▁Du": 5059,
      "stru": 5060,
      "▁sistemas": 5061,
      "▁localizado": 5062,
      "óveis": 5063,
      "▁terceiro": 5064,
      "▁hip": 5065,
      "▁banc": 5066,
      "▁by": 5067,
      "idão": 5068,
      "ille": 5069,
      "estival": 5070,
      "AP": 5071,
      "alo": 5072,
      "▁2002": 5073,
      "entas": 5074,
      "den": 5075,
      "ates": 5076,
      "▁considerado": 5077,
      "óf": 5078,
      "ebook": 5079,
      ".Você": 5080,
      "idados": 5081,
      "▁cre": 5082,
      "▁\"s": 5083,
      "postas": 5084,
      "▁respeito": 5085,
      "▁vig": 5086,
      "▁diminu": 5087,
      "{\n": 5088,
      "▁filhos": 5089,
      "▁começa": 5090,
      "▁\"B": 5091,
      "▁brasileira": 5092,
      "▁Ir": 5093,
      "atório": 5094,
      "▁bola": 5095,
      "▁manhã": 5096,
      "▁bás": 5097,
      "▁político": 5098,
      "▁viagem": 5099,
      "ory": 5100,
      "alt": 5101,
      "▁jovem": 5102,
      "▁passa": 5103,
      "ses": 5104,
      "▁front": 5105,
      "back": 5106,
      "ato,": 5107,
      "▁mundo,": 5108,
      "▁interior": 5109,
      "▁gestão": 5110,
      "ércio": 5111,
      "ington": 5112,
      "▁Da": 5113,
      "idado": 5114,
      "▁conseguir": 5115,
      "ndere": 5116,
      "▁bibliotec": 5117,
      "▁consult": 5118,
      "▁compon": 5119,
      "ismo,": 5120,
      "z,": 5121,
      "▁Tom": 5122,
      "úss": 5123,
      "▁contr": 5124,
      "\n</code>": 5125,
      "▁Eles": 5126,
      "▁cole": 5127,
      "▁roman": 5128,
      "idades,": 5129,
      "▁aprove": 5130,
      "▁mente": 5131,
      "▁Cr": 5132,
      "▁palavra": 5133,
      "ted": 5134,
      "lev": 5135,
      "avelmente": 5136,
      "▁obt": 5137,
      "▁personagens": 5138,
      "▁Que": 5139,
      "▁aconteceu": 5140,
      "▁lingu": 5141,
      "▁3.": 5142,
      "▁Ros": 5143,
      "▁proced": 5144,
      "tual": 5145,
      "wit": 5146,
      "hia": 5147,
      ".\n\nG": 5148,
      "▁definir": 5149,
      "▁impress": 5150,
      "vers": 5151,
      "▁motor": 5152,
      "▁Segundo": 5153,
      "▁natureza": 5154,
      "prim": 5155,
      "alizado": 5156,
      "antes,": 5157,
      "▁hor": 5158,
      "▁planej": 5159,
      "iva,": 5160,
      "\nUma": 5161,
      "▁jovens": 5162,
      "ráfico": 5163,
      "▁Set": 5164,
      "arm": 5165,
      "-d": 5166,
      "BC": 5167,
      "\nPro": 5168,
      "▁nomes": 5169,
      "▁Social": 5170,
      "▁Web": 5171,
      "▁mostrar": 5172,
      "▁competição": 5173,
      "▁explic": 5174,
      "▁Olímpicos": 5175,
      "▁atribu": 5176,
      "▁intens": 5177,
      "▁mundial": 5178,
      "▁recomend": 5179,
      "▁Trans": 5180,
      "▁veloc": 5181,
      "Cont": 5182,
      "rue": 5183,
      "▁começar": 5184,
      ".br": 5185,
      "▁corr": 5186,
      "▁canção": 5187,
      "ater": 5188,
      "▁Camp": 5189,
      "▁tempera": 5190,
      "▁realizada": 5191,
      "▁sei": 5192,
      "-o": 5193,
      "encion": 5194,
      "▁mín": 5195,
      "▁Del": 5196,
      "▁efet": 5197,
      "▁parcer": 5198,
      "▁intelig": 5199,
      "▁reb": 5200,
      "erno": 5201,
      "ney": 5202,
      "▁formato": 5203,
      "▁conex": 5204,
      "84": 5205,
      "iet": 5206,
      ":00": 5207,
      "s/": 5208,
      "ber": 5209,
      "▁científ": 5210,
      "▁redor": 5211,
      "▁elemento": 5212,
      "ânia": 5213,
      "uros": 5214,
      "▁agrad": 5215,
      "ima,": 5216,
      "▁Bu": 5217,
      "▁Nor": 5218,
      "▁conforme": 5219,
      "▁minhas": 5220,
      "ana,": 5221,
      "▁visu": 5222,
      "▁sensação": 5223,
      "▁aqueles": 5224,
      "▁imped": 5225,
      "▁Po": 5226,
      "▁carreg": 5227,
      "ary": 5228,
      "▁elevador": 5229,
      "ípios": 5230,
      "▁referência": 5231,
      "▁diretamente": 5232,
      "itou": 5233,
      "▁verm": 5234,
      "39": 5235,
      "▁Conf": 5236,
      "ED": 5237,
      "▁2003": 5238,
      "▁sentido": 5239,
      "pec": 5240,
      "▁incluem": 5241,
      "▁cruz": 5242,
      "▁medic": 5243,
      "▁az": 5244,
      ".get": 5245,
      "ption": 5246,
      "ões,": 5247,
      "77": 5248,
      "▁rod": 5249,
      "TA": 5250,
      "▁60": 5251,
      "▁}\n\n": 5252,
      "▁Europa": 5253,
      "enham": 5254,
      "▁destac": 5255,
      "▁My": 5256,
      "ct": 5257,
      "édia": 5258,
      "▁Club": 5259,
      "▁Er": 5260,
      "▁sexta": 5261,
      "▁disponíveis": 5262,
      "▁destru": 5263,
      "RI": 5264,
      "▁haver": 5265,
      "▁lic": 5266,
      "▁diferença": 5267,
      "etas": 5268,
      "óvel": 5269,
      "▁amp": 5270,
      "▁aux": 5271,
      "▁inov": 5272,
      "mod": 5273,
      "▁prova": 5274,
      "▁melhorar": 5275,
      "▁vice": 5276,
      "▁adic": 5277,
      "▁trabalhos": 5278,
      "ae": 5279,
      "é,": 5280,
      "▁cores": 5281,
      "jos": 5282,
      "▁programas": 5283,
      "Segundo": 5284,
      "Val": 5285,
      "▁seleção": 5286,
      "ilia": 5287,
      "inguém": 5288,
      "iosa": 5289,
      "▁Dia": 5290,
      "-a": 5291,
      "▁Santo": 5292,
      "▁idade": 5293,
      "ecer": 5294,
      "▁aud": 5295,
      "▁Inf": 5296,
      "▁vida,": 5297,
      "▁forças": 5298,
      "cend": 5299,
      "▁ambos": 5300,
      "▁excel": 5301,
      ":\n\n1.": 5302,
      "▁Crist": 5303,
      "ra.": 5304,
      "ães": 5305,
      "▁Sur": 5306,
      "oft": 5307,
      "▁elét": 5308,
      "▁sala": 5309,
      "▁China": 5310,
      "▁Do": 5311,
      "pes": 5312,
      "▁discut": 5313,
      "▁partes": 5314,
      "▁Br": 5315,
      "post": 5316,
      "▁encontro": 5317,
      "▁edif": 5318,
      "▁aumentar": 5319,
      "posto": 5320,
      "▁disponível": 5321,
      "rais": 5322,
      "▁celeb": 5323,
      "▁XV": 5324,
      "▁funciona": 5325,
      "▁vez,": 5326,
      ":0": 5327,
      "nte,": 5328,
      "set": 5329,
      "ida.": 5330,
      "tt": 5331,
      "ibliografia": 5332,
      "▁cargo": 5333,
      "▁evol": 5334,
      "▁mic": 5335,
      "ável,": 5336,
      "▁economia": 5337,
      "▁cena": 5338,
      ".\n\nCom": 5339,
      "}\n\n": 5340,
      "▁afet": 5341,
      "▁escolha": 5342,
      "ler": 5343,
      "▁Qual": 5344,
      "icos.": 5345,
      "▁avent": 5346,
      "▁Wh": 5347,
      "▁red": 5348,
      "▁estiv": 5349,
      "▁bon": 5350,
      "▁execução": 5351,
      "ble": 5352,
      "▁internet": 5353,
      "▁</p>\n<": 5354,
      "▁quinta": 5355,
      "UL": 5356,
      "▁Google": 5357,
      "ramente": 5358,
      "Int": 5359,
      "▁nar": 5360,
      "ético": 5361,
      "ational": 5362,
      "laterra": 5363,
      "▁estudos": 5364,
      "▁analis": 5365,
      "▁espanh": 5366,
      "édio": 5367,
      "▁cláss": 5368,
      ".T": 5369,
      "▁caixa": 5370,
      "▁Neg": 5371,
      "▁gratu": 5372,
      "á-l": 5373,
      "apare": 5374,
      "ural": 5375,
      "▁mudanças": 5376,
      "▁Sc": 5377,
      "ker": 5378,
      "▁verificar": 5379,
      "▁filha": 5380,
      "▁prete": 5381,
      "ovi": 5382,
      "porto": 5383,
      "Eu": 5384,
      "oa": 5385,
      "til": 5386,
      "▁Acad": 5387,
      "▁homen": 5388,
      "▁ast": 5389,
      "aixas": 5390,
      "▁certeza": 5391,
      "▁sair": 5392,
      "▁Cu": 5393,
      "▁IN": 5394,
      "bit": 5395,
      "veu": 5396,
      "ócio": 5397,
      "gio": 5398,
      "▁amigo": 5399,
      "▁Lond": 5400,
      "▁Tim": 5401,
      "44": 5402,
      "}\n</code>": 5403,
      "▁acabou": 5404,
      "▁taxa": 5405,
      "uls": 5406,
      "▁transporte": 5407,
      "ulado": 5408,
      "▁bio": 5409,
      "▁amigos": 5410,
      "▁Escola": 5411,
      "▁Jesus": 5412,
      "▁encontrado": 5413,
      "▁americano": 5414,
      "ár": 5415,
      "▁regular": 5416,
      "▁simplesmente": 5417,
      "▁sac": 5418,
      "▁hot": 5419,
      "▁fornece": 5420,
      "▁negoc": 5421,
      "\n|-": 5422,
      "ividade": 5423,
      "\n\nM": 5424,
      "eiros,": 5425,
      "▁nossas": 5426,
      "\nFutebolistas": 5427,
      "▁Partido": 5428,
      "▁tran": 5429,
      "istas,": 5430,
      "▁express": 5431,
      "roup": 5432,
      "▁implement": 5433,
      "▁suficiente": 5434,
      "▁empreg": 5435,
      "▁(a": 5436,
      "▁vaz": 5437,
      "▁trad": 5438,
      "ímbol": 5439,
      "▁intro": 5440,
      "▁pô": 5441,
      "html": 5442,
      "▁mol": 5443,
      "▁escreveu": 5444,
      "Os": 5445,
      "\n\nD": 5446,
      "▁criado": 5447,
      "▁créd": 5448,
      "▁território": 5449,
      "▁feliz": 5450,
      "▁Arqu": 5451,
      "▁\"L": 5452,
      "▁contrato": 5453,
      "ários,": 5454,
      "sto": 5455,
      "▁órg": 5456,
      "ramento": 5457,
      "▁()\n": 5458,
      "▁Dem": 5459,
      "igo,": 5460,
      "▁instrum": 5461,
      "▁DO": 5462,
      "3)": 5463,
      "▁Geral": 5464,
      "▁elim": 5465,
      "▁exce": 5466,
      "▁depend": 5467,
      "eio": 5468,
      "▁(N": 5469,
      "▁ler": 5470,
      "▁usa": 5471,
      "▁saud": 5472,
      "▁desses": 5473,
      "▁atualmente": 5474,
      "▁árvore": 5475,
      "omo": 5476,
      "▁vít": 5477,
      "sse": 5478,
      "ólog": 5479,
      "▁formas": 5480,
      "\n\nF": 5481,
      "▁escolh": 5482,
      "▁usada": 5483,
      "ura,": 5484,
      "▁antigo": 5485,
      "▁deco": 5486,
      "iações": 5487,
      "▁World": 5488,
      "inho,": 5489,
      "▁agu": 5490,
      "▁susp": 5491,
      "▁sete": 5492,
      "▁dela": 5493,
      "▁tais": 5494,
      "▁Sub": 5495,
      "▁pagamento": 5496,
      "▁termo": 5497,
      "▁($": 5498,
      "BN": 5499,
      "▁prem": 5500,
      "▁colocar": 5501,
      "▁funções": 5502,
      "▁queb": 5503,
      "▁Mu": 5504,
      "pert": 5505,
      "▁</p>\n\n": 5506,
      "▁Inglaterra": 5507,
      "▁Fund": 5508,
      "text": 5509,
      "▁leva": 5510,
      "▁gast": 5511,
      "▁quarto": 5512,
      "▁animais": 5513,
      "▁distância": 5514,
      "75": 5515,
      "▁cavalo": 5516,
      "ácio": 5517,
      "rimento": 5518,
      "▁míd": 5519,
      "ãeste": 5520,
      "▁forma,": 5521,
      "▁escrever": 5522,
      "-G": 5523,
      "idae": 5524,
      "▁mudar": 5525,
      "ife": 5526,
      "▁hid": 5527,
      ".p": 5528,
      "I,": 5529,
      "▁antiga": 5530,
      "umin": 5531,
      "▁soft": 5532,
      "▁extrem": 5533,
      "▁mencion": 5534,
      "▁Op": 5535,
      "tim": 5536,
      "-L": 5537,
      "eja": 5538,
      "▁Gen": 5539,
      "ection": 5540,
      "issões": 5541,
      "▁Robert": 5542,
      "▁entrou": 5543,
      "▁irá": 5544,
      "▁paz": 5545,
      "▁Unido": 5546,
      "▁posterior": 5547,
      "▁líder": 5548,
      "▁Grupo": 5549,
      "▁doming": 5550,
      "▁liber": 5551,
      "Na": 5552,
      "▁esteja": 5553,
      "▁compra": 5554,
      "rog": 5555,
      "▁comunicação": 5556,
      "\");\n": 5557,
      "ixo": 5558,
      "▁Europe": 5559,
      "▁totalmente": 5560,
      "▁Ha": 5561,
      "65": 5562,
      "▁ocas": 5563,
      ":5": 5564,
      "▁aliment": 5565,
      "▁Ja": 5566,
      "▁medidas": 5567,
      "▁Pet": 5568,
      "▁David": 5569,
      "▁Imp": 5570,
      "▁norte-americ": 5571,
      "ayout": 5572,
      "▁claro": 5573,
      "▁conhecer": 5574,
      "▁Eng": 5575,
      "▁proposta": 5576,
      "▁e-": 5577,
      "▁Oc": 5578,
      "▁possibilidade": 5579,
      "▁igual": 5580,
      "ini": 5581,
      "▁get": 5582,
      "▁(G": 5583,
      "▁port": 5584,
      "je,": 5585,
      "</p>": 5586,
      "▁ganhar": 5587,
      "▁tinham": 5588,
      "▁coorden": 5589,
      "▁respect": 5590,
      "▁sil": 5591,
      "▁assass": 5592,
      "▁tomar": 5593,
      "-b": 5594,
      "▁vivo": 5595,
      "▁idé": 5596,
      "▁revol": 5597,
      "name": 5598,
      "▁subst": 5599,
      "ntes,": 5600,
      "▁instru": 5601,
      "ita,": 5602,
      "▁bairro": 5603,
      "iza": 5604,
      "▁cél": 5605,
      "▁retorno": 5606,
      "ark": 5607,
      "▁busc": 5608,
      "▁esport": 5609,
      "▁paco": 5610,
      "▁Sen": 5611,
      "▁legisl": 5612,
      ".\nAs": 5613,
      "▁189": 5614,
      "▁diante": 5615,
      "iadas": 5616,
      "▁admira": 5617,
      "▁partida": 5618,
      "nce": 5619,
      "▁verdadeiro": 5620,
      "▁To": 5621,
      "http://": 5622,
      "▁revista": 5623,
      "íqu": 5624,
      "▁características": 5625,
      "▁atrás": 5626,
      "▁captura": 5627,
      "▁passo": 5628,
      "▁políticas": 5629,
      "▁correspond": 5630,
      "▁inclui": 5631,
      "▁trata": 5632,
      "▁prazo": 5633,
      "▁quart": 5634,
      "▁tempos": 5635,
      "ív": 5636,
      "han": 5637,
      "▁ouro": 5638,
      "▁isto": 5639,
      "\nOs": 5640,
      "▁venda": 5641,
      "▁Oliv": 5642,
      "▁loja": 5643,
      "▁Mad": 5644,
      "▁nessa": 5645,
      "▁botão": 5646,
      "▁Tr": 5647,
      "▁roup": 5648,
      "▁afirma": 5649,
      "ardim": 5650,
      "▁Públ": 5651,
      "âmb": 5652,
      ".\nPor": 5653,
      "▁efeito": 5654,
      "▁leitura": 5655,
      "berg": 5656,
      "▁urb": 5657,
      "▁sofre": 5658,
      "ats": 5659,
      "▁indústria": 5660,
      "▁geral,": 5661,
      "▁vê": 5662,
      "▁Gre": 5663,
      "pet": 5664,
      "▁classific": 5665,
      "Name": 5666,
      "▁amp;": 5667,
      "▁arquitet": 5668,
      "▁hon": 5669,
      "plo": 5670,
      "▁mascul": 5671,
      "▁comand": 5672,
      "▁Educação": 5673,
      "▁conserv": 5674,
      "▁destino": 5675,
      "rc": 5676,
      "a>": 5677,
      "▁XX": 5678,
      "▁luga": 5679,
      "▁estes": 5680,
      "▁unidade": 5681,
      ".\n\nR": 5682,
      "▁Ara": 5683,
      "▁processos": 5684,
      "▁erros": 5685,
      "▁frut": 5686,
      "▁ocorreu": 5687,
      "▁rit": 5688,
      "orpo": 5689,
      "untos": 5690,
      "álogo": 5691,
      "▁quis": 5692,
      "▁cidad": 5693,
      "irá": 5694,
      "orado": 5695,
      "ora,": 5696,
      "ony": 5697,
      "Depois": 5698,
      "▁pri": 5699,
      "▁tornando": 5700,
      "ouro": 5701,
      "▁prot": 5702,
      "UN": 5703,
      "▁província": 5704,
      "-R": 5705,
      "itam": 5706,
      "▁\"F": 5707,
      "ún": 5708,
      "hado": 5709,
      "▁peça": 5710,
      "▁continuar": 5711,
      "eixe": 5712,
      "▁époc": 5713,
      "▁Marc": 5714,
      "▁espécies": 5715,
      "▁vac": 5716,
      "▁florest": 5717,
      "▁abando": 5718,
      "▁executar": 5719,
      "▁símbol": 5720,
      ".\nCom": 5721,
      "▁Def": 5722,
      "▁Bat": 5723,
      "▁popul": 5724,
      "arn": 5725,
      "▁efeitos": 5726,
      "roll": 5727,
      "éx": 5728,
      "▁questões": 5729,
      "identes": 5730,
      "▁Governo": 5731,
      "▁plataforma": 5732,
      "▁Tec": 5733,
      "▁perc": 5734,
      ".\nL": 5735,
      "▁sobrev": 5736,
      "rição": 5737,
      "▁depois,": 5738,
      "augu": 5739,
      "ece": 5740,
      "▁oportunidade": 5741,
      "oto": 5742,
      "eratura": 5743,
      "▁Associação": 5744,
      "▁Vila": 5745,
      "▁ress": 5746,
      "▁parecia": 5747,
      "thur": 5748,
      "▁tornou-se": 5749,
      "▁`\n\n": 5750,
      "▁Santos": 5751,
      "▁estú": 5752,
      "▁-me": 5753,
      "▁porém": 5754,
      "▁Americ": 5755,
      "▁houve": 5756,
      "ench": 5757,
      "▁aprender": 5758,
      "▁representa": 5759,
      "orme": 5760,
      "▁acad": 5761,
      "▁comportamento": 5762,
      "SP": 5763,
      "ius": 5764,
      "jeto": 5765,
      "▁consol": 5766,
      "▁peças": 5767,
      "▁pé": 5768,
      "li>": 5769,
      "ecimento": 5770,
      "▁viz": 5771,
      "▁jap": 5772,
      "▁chave": 5773,
      "▁Conc": 5774,
      "ificações": 5775,
      "▁(co": 5776,
      "▁Ber": 5777,
      "▁</strong>": 5778,
      "▁engenh": 5779,
      "itada": 5780,
      "iço": 5781,
      "▁==": 5782,
      "adores,": 5783,
      "32": 5784,
      "ya": 5785,
      "-t": 5786,
      "za,": 5787,
      "net": 5788,
      "▁temperatura": 5789,
      ".Por": 5790,
      "▁desapare": 5791,
      "-la": 5792,
      "r,": 5793,
      "EI": 5794,
      "▁fotos": 5795,
      "Con": 5796,
      "ford": 5797,
      "▁Sha": 5798,
      "▁Alexand": 5799,
      "▁Rodri": 5800,
      ".\n\nHistória": 5801,
      "▁impacto": 5802,
      "ítica": 5803,
      "▁disco": 5804,
      "▁tím": 5805,
      "▁ele,": 5806,
      "▁resolver": 5807,
      "▁conect": 5808,
      "▁Amaz": 5809,
      "▁nasceu": 5810,
      "itores": 5811,
      "▁comentários": 5812,
      "▁\"m": 5813,
      "arch": 5814,
      "hael": 5815,
      "▁disso": 5816,
      "anas": 5817,
      "▁luc": 5818,
      "▁portanto,": 5819,
      "ides": 5820,
      "icais": 5821,
      "▁descont": 5822,
      "ição,": 5823,
      "▁quil": 5824,
      "ython": 5825,
      "▁Dist": 5826,
      "▁Silva": 5827,
      "its": 5828,
      "▁Justiça": 5829,
      "utenção": 5830,
      "ego": 5831,
      "▁medo": 5832,
      "▁trope": 5833,
      "▁modelos": 5834,
      "ioc": 5835,
      "▁ult": 5836,
      "▁Vic": 5837,
      "▁(ou": 5838,
      "▁Áf": 5839,
      "ks": 5840,
      "▁Essa": 5841,
      "da,": 5842,
      "▁3,": 5843,
      "▁prec": 5844,
      "▁Durante": 5845,
      "▁so": 5846,
      "▁momento,": 5847,
      "!\n": 5848,
      "▁endere": 5849,
      "▁materiais": 5850,
      "Qual": 5851,
      "▁regiões": 5852,
      "▁vont": 5853,
      "rang": 5854,
      "▁1999": 5855,
      "▁dessas": 5856,
      "▁veio": 5857,
      "▁comem": 5858,
      "▁dista": 5859,
      "úc": 5860,
      "66": 5861,
      "▁peso": 5862,
      "ria,": 5863,
      "▁clara": 5864,
      "▁pena": 5865,
      "▁Windo": 5866,
      "▁sen": 5867,
      "▁\nEm": 5868,
      "▁_": 5869,
      "▁negócios": 5870,
      "47": 5871,
      "▁descobrir": 5872,
      "utton": 5873,
      "▁Verão": 5874,
      "▁suporte": 5875,
      "çar": 5876,
      "▁passe": 5877,
      "▁oito": 5878,
      "▁fala": 5879,
      "uldad": 5880,
      "AB": 5881,
      "ain": 5882,
      "▁atendimento": 5883,
      "▁80": 5884,
      "))": 5885,
      "▁liter": 5886,
      "▁parâm": 5887,
      "▁<strong>": 5888,
      "▁gt;\n&": 5889,
      "▁euro": 5890,
      "▁números": 5891,
      "õe": 5892,
      "ibiliz": 5893,
      "▁prej": 5894,
      "ery": 5895,
      "▁antig": 5896,
      "nia": 5897,
      "▁continua": 5898,
      "keting": 5899,
      "49": 5900,
      "RL": 5901,
      "▁deseja": 5902,
      "▁sustent": 5903,
      "▁regul": 5904,
      "▁praz": 5905,
      "▁moviment": 5906,
      "▁transm": 5907,
      "▁equipes": 5908,
      "▁suspe": 5909,
      "▁consequ": 5910,
      "DB": 5911,
      "▁repro": 5912,
      "▁pele": 5913,
      "fíc": 5914,
      "▁bin": 5915,
      "rada,": 5916,
      "▁impre": 5917,
      "▁caf": 5918,
      "\nPor": 5919,
      "te,": 5920,
      "we": 5921,
      "eda": 5922,
      "▁musical": 5923,
      "▁apresentar": 5924,
      "▁consc": 5925,
      "▁Rel": 5926,
      "▁Ne": 5927,
      "▁satis": 5928,
      "antil": 5929,
      "▁ajust": 5930,
      "▁Fin": 5931,
      "ily": 5932,
      "▁configuração": 5933,
      "▁acontece": 5934,
      "▁script": 5935,
      "way": 5936,
      "▁mistura": 5937,
      "▁\"n": 5938,
      "▁abordagem": 5939,
      "31": 5940,
      "ornal": 5941,
      "▁itens": 5942,
      "▁perda": 5943,
      "▁denom": 5944,
      "▁Prof": 5945,
      "▁doença": 5946,
      "▁Civil": 5947,
      "▁aí": 5948,
      "ina.": 5949,
      "▁pand": 5950,
      "ML": 5951,
      "ij": 5952,
      "x.": 5953,
      "ária,": 5954,
      "▁vant": 5955,
      "▁acho": 5956,
      "fl": 5957,
      "▁atriz": 5958,
      "▁dor": 5959,
      "▁Central": 5960,
      "\n19": 5961,
      "▁club": 5962,
      "38": 5963,
      "---------": 5964,
      "▁trib": 5965,
      "▁parceria": 5966,
      "▁democ": 5967,
      ".\n\nV": 5968,
      "▁cho": 5969,
      "▁tradicional": 5970,
      "▁impression": 5971,
      "l,": 5972,
      "âncias": 5973,
      "▁ID": 5974,
      "▁pedido": 5975,
      "▁francês": 5976,
      "▁inaugu": 5977,
      "▁defesa": 5978,
      "▁canal": 5979,
      "▁operação": 5980,
      ".Isso": 5981,
      "tro": 5982,
      ":\n\n<pre>": 5983,
      "am,": 5984,
      "▁Rúss": 5985,
      "icando": 5986,
      "▁coluna": 5987,
      "78": 5988,
      "▁estrang": 5989,
      "erar": 5990,
      ".\n\nEnquanto": 5991,
      "ova": 5992,
      "▁econom": 5993,
      "▁terceira": 5994,
      "▁Tribunal": 5995,
      "istema": 5996,
      "fere": 5997,
      "▁Aut": 5998,
      "urt": 5999,
      "▁mãos": 6000,
      "▁Henri": 6001,
      "írus": 6002,
      "▁auto": 6003,
      "▁u": 6004,
      "list": 6005,
      "▁fisc": 6006,
      "▁federal": 6007,
      "▁Net": 6008,
      "hes": 6009,
      "▁</a>": 6010,
      "▁tiveram": 6011,
      "▁\"c": 6012,
      "▁4.": 6013,
      "▁All": 6014,
      "▁S.": 6015,
      "▁escolher": 6016,
      "▁apar": 6017,
      "itora": 6018,
      "▁torno": 6019,
      "▁Vis": 6020,
      "▁então,": 6021,
      "▁preços": 6022,
      "▁médico": 6023,
      "s)": 6024,
      "▁km2": 6025,
      "▁Inv": 6026,
      "-me": 6027,
      "vergon": 6028,
      "▁remo": 6029,
      "▁efic": 6030,
      "▁Bio": 6031,
      "enças": 6032,
      ".\nNa": 6033,
      "▁Hist": 6034,
      "▁artista": 6035,
      "x,": 6036,
      "ava:": 6037,
      "dust": 6038,
      "íss": 6039,
      "▁«": 6040,
      "bro": 6041,
      "▁transmit": 6042,
      "▁capit": 6043,
      "▁funcionários": 6044,
      "rata": 6045,
      "▁tela": 6046,
      "▁Gab": 6047,
      "▁unidades": 6048,
      "lock": 6049,
      "olesc": 6050,
      "eig": 6051,
      "▁julg": 6052,
      "▁Che": 6053,
      "▁vale": 6054,
      "ple": 6055,
      "▁perf": 6056,
      "▁advog": 6057,
      "ando,": 6058,
      "▁tit": 6059,
      "inat": 6060,
      "▁Dou": 6061,
      "▁Esse": 6062,
      "iando": 6063,
      "▁Méx": 6064,
      "▁Rib": 6065,
      "▁completa": 6066,
      "▁relev": 6067,
      "▁Polícia": 6068,
      "▁branc": 6069,
      "▁(U": 6070,
      "▁é,": 6071,
      "▁custo": 6072,
      "▁variável": 6073,
      "▁Segunda": 6074,
      "▁Ren": 6075,
      "ute": 6076,
      "IX": 6077,
      "▁Canad": 6078,
      "▁lado,": 6079,
      "pare": 6080,
      "▁objetos": 6081,
      "▁ninguém": 6082,
      "▁registro": 6083,
      "eras": 6084,
      "▁técnica": 6085,
      "▁Android:": 6086,
      "envolv": 6087,
      "▁Mel": 6088,
      "MA": 6089,
      "nsa": 6090,
      "iamento": 6091,
      "class": 6092,
      "burg": 6093,
      "round": 6094,
      "quela": 6095,
      "▁single": 6096,
      "▁domin": 6097,
      "▁participar": 6098,
      "▁ferramentas": 6099,
      "▁desenh": 6100,
      "79": 6101,
      "▁ferro": 6102,
      "field": 6103,
      "lass": 6104,
      "▁deveria": 6105,
      "▁necessidades": 6106,
      "Est": 6107,
      "\n\nVer": 6108,
      "▁Wal": 6109,
      "▁pós": 6110,
      "▁superfíc": 6111,
      "▁Inc": 6112,
      "érie": 6113,
      "lie": 6114,
      "▁consulta": 6115,
      "▁faixa": 6116,
      "▁criança": 6117,
      "▁pront": 6118,
      "▁talvez": 6119,
      "▁Clube": 6120,
      "QL": 6121,
      "▁atmos": 6122,
      "▁Econ": 6123,
      "ítulo": 6124,
      "CI": 6125,
      "▁Há": 6126,
      "▁reunião": 6127,
      "utro": 6128,
      "▁Pes": 6129,
      "▁Minas": 6130,
      "▁term": 6131,
      "▁emerg": 6132,
      "▁aparece": 6133,
      "▁prefeito": 6134,
      ".\n-": 6135,
      "▁(I": 6136,
      "▁software": 6137,
      "yd": 6138,
      "▁anunciou": 6139,
      "▁ilha": 6140,
      "▁pensar": 6141,
      "unção": 6142,
      ".\n\n2.": 6143,
      "ualmente": 6144,
      "wa": 6145,
      "ial,": 6146,
      "▁ataque": 6147,
      "bre": 6148,
      "▁ocorr": 6149,
      "▁</li": 6150,
      "▁aproximadamente": 6151,
      "▁Ess": 6152,
      ".\nV": 6153,
      "▁rapidamente": 6154,
      "ii": 6155,
      "▁Ju": 6156,
      "▁pud": 6157,
      "▁Real": 6158,
      "▁ator": 6159,
      "alizar": 6160,
      "▁Jack": 6161,
      "▁apont": 6162,
      "▁usados": 6163,
      "▁Brasileira": 6164,
      "-p": 6165,
      "▁gl": 6166,
      "▁baixa": 6167,
      "▁Presidente": 6168,
      "▁milita": 6169,
      "\nI": 6170,
      "▁Merc": 6171,
      "____": 6172,
      "pósito": 6173,
      "\nAs": 6174,
      "▁antec": 6175,
      "ílio": 6176,
      "ragem": 6177,
      "▁provavelmente": 6178,
      "-g": 6179,
      "▁lidar": 6180,
      "▁apl": 6181,
      "▁Arthur": 6182,
      "▁Vir": 6183,
      "etes": 6184,
      "▁aquele": 6185,
      "▁»": 6186,
      "▁velocidade": 6187,
      "Jo": 6188,
      "▁fix": 6189,
      "▁)": 6190,
      "▁histórico": 6191,
      "▁voltou": 6192,
      "▁possib": 6193,
      "▁artes": 6194,
      "▁Melhor": 6195,
      "▁Cond": 6196,
      "ncio": 6197,
      "ancel": 6198,
      "indic": 6199,
      "▁tex": 6200,
      "Por": 6201,
      "▁Sab": 6202,
      "▁SP": 6203,
      "▁caso,": 6204,
      "ículos": 6205,
      "ings": 6206,
      "▁surpres": 6207,
      "▁Hel": 6208,
      "=center": 6209,
      "▁J.": 6210,
      "▁Internet": 6211,
      "conf": 6212,
      "▁restaura": 6213,
      "óst": 6214,
      "▁Dec": 6215,
      "▁escrita": 6216,
      "ilar": 6217,
      "▁Pod": 6218,
      "▁Ori": 6219,
      "▁Brasil.": 6220,
      "▁2:": 6221,
      "▁abertura": 6222,
      "ând": 6223,
      "▁entra": 6224,
      "lare": 6225,
      "rita": 6226,
      "▁Hot": 6227,
      "▁classificação": 6228,
      "▁morreu": 6229,
      "▁acresc": 6230,
      "▁atac": 6231,
      "▁Tal": 6232,
      "▁reduzir": 6233,
      "▁\"N": 6234,
      "top": 6235,
      "▁vezes,": 6236,
      "ouse": 6237,
      "zes": 6238,
      "▁are": 6239,
      "▁desconhec": 6240,
      "▁href=\"": 6241,
      "▁contar": 6242,
      "imentar": 6243,
      "▁Us": 6244,
      "usão": 6245,
      "▁War": 6246,
      "........": 6247,
      "▁infer": 6248,
      "iário": 6249,
      "▁proteção": 6250,
      "▁inser": 6251,
      "onel": 6252,
      "érias": 6253,
      "▁Liga": 6254,
      "▁completamente": 6255,
      "-lhe": 6256,
      "▁Pen": 6257,
      "▁músicas": 6258,
      "46": 6259,
      "▁temp": 6260,
      ".Eu": 6261,
      "▁negócio": 6262,
      "▁comuna": 6263,
      "▁regras": 6264,
      "met": 6265,
      "▁(p": 6266,
      "aqu": 6267,
      "▁Hum": 6268,
      "inf": 6269,
      "sor": 6270,
      "ited": 6271,
      "▁digital": 6272,
      "▁psic": 6273,
      "ispo": 6274,
      "▁35": 6275,
      "▁casamento": 6276,
      "va,": 6277,
      "▁Brasileiro": 6278,
      "ntre": 6279,
      "▁missão": 6280,
      "FF": 6281,
      "▁terça": 6282,
      "▁eleições": 6283,
      "inha,": 6284,
      "▁Costa": 6285,
      "▁soluções": 6286,
      "ádio": 6287,
      "estrutura": 6288,
      "xe": 6289,
      "ances": 6290,
      ".\n\n3.": 6291,
      "gress": 6292,
      "▁torna": 6293,
      "óm": 6294,
      "cido": 6295,
      "▁escolas": 6296,
      "▁III": 6297,
      "▁relações": 6298,
      "▁níveis": 6299,
      "▁lav": 6300,
      ".Os": 6301,
      "to.": 6302,
      "▁decidiu": 6303,
      "▁técnico": 6304,
      ">\n<li>": 6305,
      "▁técnicas": 6306,
      "▁PS": 6307,
      "deração": 6308,
      "px": 6309,
      "▁colo": 6310,
      "▁renov": 6311,
      "lim": 6312,
      "▁viver": 6313,
      "eiramente": 6314,
      "orde": 6315,
      "▁primeiras": 6316,
      "▁zona": 6317,
      "▁Fernando": 6318,
      "own": 6319,
      "▁Ordem": 6320,
      "▁lançou": 6321,
      "▁estat": 6322,
      "▁(20": 6323,
      "▁Constitu": 6324,
      "ónio": 6325,
      "▁possam": 6326,
      "ípio": 6327,
      "▁`\n": 6328,
      "▁repet": 6329,
      "▁orgul": 6330,
      "▁<a": 6331,
      "▁Facebook": 6332,
      "core": 6333,
      "urgo": 6334,
      "▁métodos": 6335,
      "inada": 6336,
      "▁fa": 6337,
      "▁Secretaria": 6338,
      "▁Don": 6339,
      "rál": 6340,
      "▁1o": 6341,
      "▁publicado": 6342,
      ".Ela": 6343,
      "▁list": 6344,
      "ori": 6345,
      ".F": 6346,
      "▁nota": 6347,
      "url": 6348,
      "▁elef": 6349,
      "ativamente": 6350,
      "row": 6351,
      "▁chin": 6352,
      "▁artistas": 6353,
      ".Aqui": 6354,
      "ionar": 6355,
      "▁formul": 6356,
      "órm": 6357,
      "ek": 6358,
      "\n|align": 6359,
      "vent": 6360,
      "▁iniciat": 6361,
      "usa": 6362,
      "çou": 6363,
      "onav": 6364,
      "▁História": 6365,
      "file": 6366,
      "▁Fore": 6367,
      "▁venceu": 6368,
      "uno": 6369,
      "▁pertencente": 6370,
      "▁Estad": 6371,
      "elic": 6372,
      "▁\"t": 6373,
      "obil": 6374,
      "▁razão": 6375,
      "bon": 6376,
      "▁Império": 6377,
      "orda": 6378,
      "▁refor": 6379,
      "rg": 6380,
      "▁Administ": 6381,
      "▁soz": 6382,
      ".\nB": 6383,
      ".\n\nPara": 6384,
      "▁envergon": 6385,
      "▁realidade": 6386,
      "▁partido": 6387,
      "▁perder": 6388,
      "▁manutenção": 6389,
      "▁momentos": 6390,
      "▁2022": 6391,
      "▁festa": 6392,
      "ics": 6393,
      "▁oferecer": 6394,
      "_id": 6395,
      "▁jornada": 6396,
      "ídas": 6397,
      "▁>": 6398,
      "▁ri": 6399,
      "▁perfe": 6400,
      "vey": 6401,
      "▁país,": 6402,
      "▁Cin": 6403,
      "item": 6404,
      "osof": 6405,
      "▁sequência": 6406,
      "▁fundamental": 6407,
      "▁http://": 6408,
      "▁podia": 6409,
      "erm": 6410,
      "▁vontade": 6411,
      "▁Bras": 6412,
      "ve,": 6413,
      "▁cast": 6414,
      "uncia": 6415,
      "\nEst": 6416,
      "▁dicas": 6417,
      "76": 6418,
      "▁supera": 6419,
      "ros,": 6420,
      "▁Calif": 6421,
      "íram": 6422,
      "▁voltar": 6423,
      "▁(O": 6424,
      "▁Bas": 6425,
      "ym": 6426,
      "▁ISBN": 6427,
      "▁famílias": 6428,
      "▁Argent": 6429,
      "iclo": 6430,
      "?\"": 6431,
      "▁País": 6432,
      "▁vendas": 6433,
      "itário": 6434,
      ".000": 6435,
      "ianos": 6436,
      "▁indust": 6437,
      "▁influenc": 6438,
      ".\n\nNa": 6439,
      "▁dado": 6440,
      "-D": 6441,
      "▁África": 6442,
      "▁responsabilidade": 6443,
      "▁operações": 6444,
      "▁CON": 6445,
      "▁aplicação": 6446,
      "▁Record": 6447,
      "\n\nT": 6448,
      "▁episódio": 6449,
      "▁cinema": 6450,
      "▁civil": 6451,
      "entou": 6452,
      "▁lugares": 6453,
      "▁Lista": 6454,
      "▁e-mail": 6455,
      "4)": 6456,
      "▁veg": 6457,
      "▁Lisboa": 6458,
      "▁Pan": 6459,
      "▁máximo": 6460,
      "▁emo": 6461,
      "▁meta": 6462,
      "culo": 6463,
      "eca": 6464,
      "▁tes": 6465,
      "▁ram": 6466,
      "▁proib": 6467,
      "▁Lat": 6468,
      "elhos": 6469,
      "▁fizeram": 6470,
      "▁trabalha": 6471,
      "▁Faz": 6472,
      "ose": 6473,
      "rov": 6474,
      "▁especific": 6475,
      "▁alterações": 6476,
      "▁realização": 6477,
      ".d": 6478,
      "▁queria": 6479,
      "▁1:": 6480,
      "ações,": 6481,
      "ega": 6482,
      "▁deputado": 6483,
      "emble": 6484,
      "▁dando": 6485,
      "▁equipamentos": 6486,
      "/s": 6487,
      "ush": 6488,
      "teve": 6489,
      "▁cenário": 6490,
      "▁departamento": 6491,
      "\n-": 6492,
      "inais": 6493,
      "_d": 6494,
      "agem,": 6495,
      "▁administração": 6496,
      "\n\nB": 6497,
      "▁mel": 6498,
      "ident": 6499,
      "▁estação": 6500,
      "▁abandon": 6501,
      "▁conceito": 6502,
      "▁emoc": 6503,
      "▁Christ": 6504,
      "go,": 6505,
      "▁espírito": 6506,
      "48": 6507,
      "▁preserv": 6508,
      "▁let": 6509,
      "▁precisam": 6510,
      "▁Az": 6511,
      "▁Itália": 6512,
      "▁crio": 6513,
      "▁500": 6514,
      "▁possuem": 6515,
      "▁far": 6516,
      "▁divisão": 6517,
      "▁rápido": 6518,
      "▁Tre": 6519,
      "▁conexão": 6520,
      "▁entrevista": 6521,
      "▁destaque": 6522,
      "tado": 6523,
      "OV": 6524,
      "▁Bill": 6525,
      "\",\n": 6526,
      "▁propriet": 6527,
      "=center|": 6528,
      "▁trás": 6529,
      "▁olhar": 6530,
      "▁paral": 6531,
      "▁bra": 6532,
      "bes": 6533,
      "▁jogar": 6534,
      "▁instituições": 6535,
      "▁aére": 6536,
      "▁desenvolver": 6537,
      "illa": 6538,
      "▁Vit": 6539,
      "C,": 6540,
      "▁equil": 6541,
      "enhora": 6542,
      "▁cursos": 6543,
      "▁cima": 6544,
      "▁comércio": 6545,
      "▁estas": 6546,
      "▁Unidos,": 6547,
      "▁branco": 6548,
      "']": 6549,
      "▁sinal": 6550,
      "ake": 6551,
      "▁item": 6552,
      "▁exat": 6553,
      "List": 6554,
      ".\n\nReferências": 6555,
      "érios": 6556,
      "ândia": 6557,
      "eição": 6558,
      "▁estreia": 6559,
      "▁gar": 6560,
      "vas": 6561,
      "▁Anton": 6562,
      "▁digit": 6563,
      "▁Fam": 6564,
      "▁corretamente": 6565,
      "▁Ret": 6566,
      "ístico": 6567,
      "▁event": 6568,
      "isp": 6569,
      "▁adolesc": 6570,
      "▁médio": 6571,
      "rans": 6572,
      "▁investimento": 6573,
      "otos": 6574,
      "app": 6575,
      "▁elabora": 6576,
      "\nNaturais": 6577,
      "▁europe": 6578,
      "acia": 6579,
      "▁participou": 6580,
      "▁consigo": 6581,
      "_s": 6582,
      "▁tenham": 6583,
      "ertas": 6584,
      "▁text": 6585,
      "▁rua": 6586,
      "mer": 6587,
      "▁permitir": 6588,
      "idth": 6589,
      "ocum": 6590,
      "face": 6591,
      ".\n\nQuando": 6592,
      "\nAl": 6593,
      "▁vence": 6594,
      "▁danç": 6595,
      "opera": 6596,
      "\n|-\n|": 6597,
      "▁preench": 6598,
      "s\n": 6599,
      "tora": 6600,
      "▁muito,": 6601,
      "áticos": 6602,
      ".\n\nAs": 6603,
      "▁retira": 6604,
      "rí": 6605,
      "irou": 6606,
      "▁voc": 6607,
      ".c": 6608,
      "▁fort": 6609,
      "▁Comissão": 6610,
      "▁quios": 6611,
      "▁CD": 6612,
      "omos": 6613,
      "lib": 6614,
      "▁governador": 6615,
      "▁bilhões": 6616,
      "▁70": 6617,
      "urou": 6618,
      "▁incr": 6619,
      "▁['": 6620,
      "▁avaliação": 6621,
      "▁pagar": 6622,
      "▁quím": 6623,
      "▁Men": 6624,
      "ote": 6625,
      "▁feitas": 6626,
      "▁figura": 6627,
      "kk": 6628,
      "▁Dev": 6629,
      "uri": 6630,
      "▁abrir": 6631,
      "▁vál": 6632,
      "ente.": 6633,
      "▁incent": 6634,
      "▁campeão": 6635,
      "ilhão": 6636,
      "ífic": 6637,
      "▁documentos": 6638,
      "▁querem": 6639,
      "▁influência": 6640,
      "▁benefícios": 6641,
      "▁Tor": 6642,
      "▁Edu": 6643,
      "▁ciência": 6644,
      "▁adapt": 6645,
      "▁mante": 6646,
      "▁crise": 6647,
      "▁alimentos": 6648,
      "ógica": 6649,
      "▁irmão": 6650,
      "▁programação": 6651,
      "iografia": 6652,
      "▁90": 6653,
      "▁atmosfera": 6654,
      "off": 6655,
      "▁Luís": 6656,
      "eiras,": 6657,
      "▁azul": 6658,
      "▁isol": 6659,
      "▁presentes": 6660,
      "▁igreja": 6661,
      "▁Flo": 6662,
      "êmios": 6663,
      "▁Dig": 6664,
      "prov": 6665,
      "Ob": 6666,
      "▁Gar": 6667,
      "▁resulta": 6668,
      "▁James": 6669,
      "▁Prêmio": 6670,
      "▁amig": 6671,
      "▁certa": 6672,
      "emat": 6673,
      "▁conden": 6674,
      "▁hav": 6675,
      "▁proporcion": 6676,
      "▁lil": 6677,
      "▁tiver": 6678,
      "▁responder": 6679,
      "▁chefe": 6680,
      "▁apos": 6681,
      "▁Festival": 6682,
      "ndos": 6683,
      "▁Ven": 6684,
      "▁liberdade": 6685,
      "▁tecnolog": 6686,
      "▁computador": 6687,
      "rama": 6688,
      "bar": 6689,
      "▁pressão": 6690,
      "rea": 6691,
      "amar": 6692,
      "ashington": 6693,
      "oll": 6694,
      "▁Mes": 6695,
      "rigado": 6696,
      "▁geração": 6697,
      "▁ganha": 6698,
      "witter": 6699,
      "anhas": 6700,
      "▁falou": 6701,
      "\nEnquanto": 6702,
      "ssa": 6703,
      "▁teoria": 6704,
      "eceu": 6705,
      "▁recebe": 6706,
      "▁Sport": 6707,
      "▁maravilh": 6708,
      "▁trabalhadores": 6709,
      "ólica": 6710,
      "▁casa,": 6711,
      "▁Gon": 6712,
      "ven": 6713,
      "▁negociação": 6714,
      "▁utilizado": 6715,
      "ocar": 6716,
      "▁conver": 6717,
      "▁passando": 6718,
      "aga": 6719,
      "ônica": 6720,
      "▁ministro": 6721,
      "▁ama": 6722,
      "▁expressão": 6723,
      "▁recurso": 6724,
      "▁Austrál": 6725,
      "??": 6726,
      "▁pad": 6727,
      "▁esperança": 6728,
      "▁Arm": 6729,
      "▁trabalho,": 6730,
      "▁...\n": 6731,
      "▁be": 6732,
      "▁deixa": 6733,
      "▁poucos": 6734,
      "▁variedade": 6735,
      "▁finalmente": 6736,
      "▁comentário": 6737,
      "▁nomeado": 6738,
      "▁aer": 6739,
      "▁essencial": 6740,
      "der": 6741,
      "uso": 6742,
      "▁Windows": 6743,
      "▁manifesta": 6744,
      "▁Pop": 6745,
      "▁metade": 6746,
      "▁2016,": 6747,
      "▁cai": 6748,
      "play": 6749,
      "dora": 6750,
      "▁Assim,": 6751,
      "▁candidato": 6752,
      "▁tim": 6753,
      "▁criada": 6754,
      "▁bandeira": 6755,
      "▁olh": 6756,
      "▁Han": 6757,
      "▁condição": 6758,
      "▁A.": 6759,
      "▁Ka": 6760,
      "▁vere": 6761,
      "▁(e": 6762,
      "▁orç": 6763,
      "▁DA": 6764,
      "iverso": 6765,
      "DO": 6766,
      "UR": 6767,
      "▁fontes": 6768,
      "▁máquina": 6769,
      "▁;": 6770,
      "▁Ainda": 6771,
      "▁mad": 6772,
      "▁3:": 6773,
      "▁afast": 6774,
      "ntão,": 6775,
      "▁imediat": 6776,
      "▁limp": 6777,
      "▁escal": 6778,
      "▁Form": 6779,
      "▁estados": 6780,
      "▁fim,": 6781,
      "▁Direito": 6782,
      "▁Japão": 6783,
      "âng": 6784,
      "-v": 6785,
      "▁armas": 6786,
      "▁consegue": 6787,
      ".\nSe": 6788,
      "▁naquele": 6789,
      "▁Catar": 6790,
      "▁String": 6791,
      "ott": 6792,
      "▁EM": 6793,
      "▁longe": 6794,
      "69": 6795,
      "▁2010,": 6796,
      "igh": 6797,
      "▁Portugu": 6798,
      "ensa": 6799,
      "de,": 6800,
      "▁fug": 6801,
      "ariam": 6802,
      "▁Notícias": 6803,
      "Álb": 6804,
      "▁Espec": 6805,
      "P,": 6806,
      "String": 6807,
      "▁ferramenta": 6808,
      "▁\"f": 6809,
      "envolvimento": 6810,
      "▁acessar": 6811,
      "▁sexo": 6812,
      "▁2018,": 6813,
      "▁francesa": 6814,
      "▁habilidades": 6815,
      "izados": 6816,
      "ike": 6817,
      "idez": 6818,
      "▁humano": 6819,
      "▁apresentação": 6820,
      "▁les": 6821,
      "S,": 6822,
      "▁massa": 6823,
      "▁campos": 6824,
      "▁promover": 6825,
      "▁humanos": 6826,
      "▁Proc": 6827,
      "▁pequenas": 6828,
      "▁Syst": 6829,
      "rup": 6830,
      "▁flores": 6831,
      "▁ingles": 6832,
      "úl": 6833,
      "itações": 6834,
      "▁sucess": 6835,
      "▁Apesar": 6836,
      "etos": 6837,
      "▁construir": 6838,
      "▁Salv": 6839,
      "▁relatório": 6840,
      "▁queda": 6841,
      "▁internacionais": 6842,
      ".\nR": 6843,
      "och": 6844,
      "▁dens": 6845,
      ".\nJ": 6846,
      "▁propriedades": 6847,
      "▁Pere": 6848,
      "▁tarde,": 6849,
      "▁Janeiro,": 6850,
      "▁suger": 6851,
      "rias": 6852,
      "ônico": 6853,
      "E,": 6854,
      "▁biblioteca": 6855,
      "▁segue": 6856,
      "ndas": 6857,
      "ráfica": 6858,
      "▁prêmio": 6859,
      "▁COM": 6860,
      "ã,": 6861,
      "▁prisão": 6862,
      "▁fatores": 6863,
      "ulo,": 6864,
      "▁requer": 6865,
      "▁carta": 6866,
      "▁ment": 6867,
      "▁conhece": 6868,
      "▁criatura": 6869,
      "▁vide": 6870,
      "▁Fa": 6871,
      "▁Museu": 6872,
      "▁Michael": 6873,
      "Ch": 6874,
      "ivos,": 6875,
      "arac": 6876,
      "5)": 6877,
      "ocalidades": 6878,
      "▁identific": 6879,
      "▁especiais": 6880,
      "▁Inter": 6881,
      "▁alegria": 6882,
      "▁Tod": 6883,
      "▁começaram": 6884,
      "ende": 6885,
      "▁pec": 6886,
      "▁|---------": 6887,
      "▁aberto": 6888,
      ".\nDe": 6889,
      "▁proteg": 6890,
      "▁Luiz": 6891,
      "▁juntamente": 6892,
      "gura": 6893,
      "▁distribuição": 6894,
      "▁continuou": 6895,
      "iços": 6896,
      "gumas": 6897,
      "-F": 6898,
      "▁Rich": 6899,
      "▁estudantes": 6900,
      "▁map": 6901,
      "▁documento": 6902,
      "▁juríd": 6903,
      "▁Award": 6904,
      "uth": 6905,
      "▁p.": 6906,
      "▁recente": 6907,
      "▁Ce": 6908,
      "▁dizendo": 6909,
      "▁escond": 6910,
      "▁1998": 6911,
      "▁plant": 6912,
      "▁Hom": 6913,
      "▁..": 6914,
      "▁disputa": 6915,
      "▁Jorge": 6916,
      "embleia": 6917,
      ".\n\n4.": 6918,
      "▁incorpo": 6919,
      "▁layout": 6920,
      "▁municípios": 6921,
      "pesar": 6922,
      "QU": 6923,
      "▁linguagem": 6924,
      "▁alma": 6925,
      "▁We": 6926,
      "▁nam": 6927,
      "rael": 6928,
      "nos": 6929,
      "▁Comun": 6930,
      "▁alcançar": 6931,
      "▁cultural": 6932,
      "orit": 6933,
      "▁baseado": 6934,
      "▁polícia": 6935,
      "▁4,": 6936,
      "▁redução": 6937,
      "▁(H": 6938,
      "▁crédito": 6939,
      "▁encer": 6940,
      "▁pequenos": 6941,
      "▁combate": 6942,
      "lor": 6943,
      "▁comemora": 6944,
      "ágina": 6945,
      "ementar": 6946,
      "▁etapa": 6947,
      "uldades": 6948,
      "▁Fort": 6949,
      "▁cad": 6950,
      "0000": 6951,
      "rador": 6952,
      "\n\nCoro:": 6953,
      "▁\"R": 6954,
      "59": 6955,
      "▁Pont": 6956,
      "▁automat": 6957,
      "▁(de": 6958,
      "ox": 6959,
      "▁Hosp": 6960,
      "▁Bern": 6961,
      "▁plan": 6962,
      "▁pessoas,": 6963,
      "rosoft": 6964,
      "▁Paran": 6965,
      "▁cru": 6966,
      "▁censo": 6967,
      "▁deixando": 6968,
      "▁Novo": 6969,
      "▁micro": 6970,
      "▁escritor": 6971,
      "▁magn": 6972,
      "▁estratégia": 6973,
      "▁Seleção": 6974,
      "▁fluxo": 6975,
      "▁assunto": 6976,
      "▁(com": 6977,
      "▁experiências": 6978,
      "eroporto": 6979,
      "▁quadro": 6980,
      "ci": 6981,
      "▁etapas": 6982,
      "):\n": 6983,
      "▁transfer": 6984,
      "▁sp": 6985,
      "print": 6986,
      "▁rus": 6987,
      "▁().": 6988,
      "▁roub": 6989,
      "▁Militar": 6990,
      "67": 6991,
      "▁confiança": 6992,
      "▁ouvir": 6993,
      "▁Java": 6994,
      "aro,": 6995,
      "ENT": 6996,
      "icas.": 6997,
      "ést": 6998,
      "▁discuss": 6999,
      "▁Washington": 7000,
      "▁normalmente": 7001,
      "▁temas": 7002,
      "▁cheio": 7003,
      "▁disponibiliz": 7004,
      "▁trazer": 7005,
      ".\n\nVersículo": 7006,
      "▁requis": 7007,
      "▁inclusive": 7008,
      "▁deixe": 7009,
      "itos,": 7010,
      "ars": 7011,
      "▁completo": 7012,
      "▁absol": 7013,
      "Code": 7014,
      "▁Ana": 7015,
      "ariamente": 7016,
      "▁encontram": 7017,
      "▁conclus": 7018,
      "▁Ita": 7019,
      "▁trop": 7020,
      "▁ans": 7021,
      "▁Cidade": 7022,
      "▁terminou": 7023,
      "▁próximos": 7024,
      "▁URL": 7025,
      "▁Congresso": 7026,
      "▁Todos": 7027,
      "▁implant": 7028,
      "▁Inte": 7029,
      "▁Prefeitura": 7030,
      "iritu": 7031,
      "▁chega": 7032,
      "▁long": 7033,
      "▁Thomas": 7034,
      "▁perdeu": 7035,
      "▁espanhol": 7036,
      "Quem": 7037,
      "▁Opera": 7038,
      "empo": 7039,
      "ition": 7040,
      "▁carros": 7041,
      "▁cuidados": 7042,
      "ta.": 7043,
      "▁dispositivo": 7044,
      "-2": 7045,
      "Álbuns": 7046,
      ".\n\nCar": 7047,
      "▁útil": 7048,
      "▁Rede": 7049,
      "▁gradu": 7050,
      "▁foco": 7051,
      "ava.": 7052,
      ".\n\nEle": 7053,
      "▁•": 7054,
      "▁práticas": 7055,
      "▁d'": 7056,
      "▁2012,": 7057,
      "▁jud": 7058,
      "▁opinião": 7059,
      "rank": 7060,
      "▁sorte": 7061,
      "▁esteve": 7062,
      "▁cóp": 7063,
      "▁existência": 7064,
      "▁motivo": 7065,
      "▁fest": 7066,
      "ound": 7067,
      "iano,": 7068,
      "▁Equ": 7069,
      "▁Sk": 7070,
      "▁benefic": 7071,
      "▁planos": 7072,
      "▁guitar": 7073,
      "▁calor": 7074,
      "letas": 7075,
      "n,": 7076,
      "▁defe": 7077,
      "ecção": 7078,
      "▁seguro": 7079,
      "▁frequentemente": 7080,
      "▁end": 7081,
      "▁semanas": 7082,
      "▁Paris": 7083,
      "▁ali": 7084,
      "▁experiment": 7085,
      "▁cicl": 7086,
      "▁corrida": 7087,
      "▁etc.": 7088,
      "5%": 7089,
      "onas": 7090,
      "▁Play": 7091,
      "▁(que": 7092,
      "▁romance": 7093,
      "ursos": 7094,
      "▁aus": 7095,
      "aso": 7096,
      "▁mód": 7097,
      "▁Tel": 7098,
      "▁Jun": 7099,
      "▁(o": 7100,
      "▁cabeç": 7101,
      "▁pasta": 7102,
      "fas": 7103,
      "ma,": 7104,
      "tagon": 7105,
      "iosos": 7106,
      "▁film": 7107,
      "▁solo": 7108,
      "▁possíveis": 7109,
      "▁vocês": 7110,
      "▁Corre": 7111,
      "▁resid": 7112,
      "],": 7113,
      "▁militares": 7114,
      "▁my": 7115,
      "▁esquerda": 7116,
      "il,": 7117,
      "▁mundo.": 7118,
      "dom": 7119,
      "▁fogo": 7120,
      "óx": 7121,
      "▁casas": 7122,
      "▁2017,": 7123,
      "stack": 7124,
      "▁</pre>\n\n": 7125,
      "▁alg": 7126,
      "▁2014,": 7127,
      "creva": 7128,
      "▁autoridades": 7129,
      "\")\n": 7130,
      "ql": 7131,
      "box": 7132,
      "\nIn": 7133,
      "▁je": 7134,
      "▁sobreviv": 7135,
      "▁literatura": 7136,
      "▁endereço": 7137,
      "▁Rock": 7138,
      "▁Black": 7139,
      "▁exposição": 7140,
      "▁Pass": 7141,
      "irem": 7142,
      ".Se": 7143,
      "▁Mich": 7144,
      "erena": 7145,
      "EG": 7146,
      "▁árvores": 7147,
      "▁atend": 7148,
      "ela,": 7149,
      "inde": 7150,
      "erna": 7151,
      "▁abra": 7152,
      "▁procurando": 7153,
      "▁teatro": 7154,
      "▁semelhante": 7155,
      "▁plantas": 7156,
      "43": 7157,
      "▁Miss": 7158,
      "▁Aleg": 7159,
      "▁troca": 7160,
      "map": 7161,
      "/200": 7162,
      "órmula": 7163,
      "▁Joh": 7164,
      "istência": 7165,
      "▁limite": 7166,
      "▁inim": 7167,
      "▁Cel": 7168,
      "rado,": 7169,
      "hy": 7170,
      "▁trou": 7171,
      "ground": 7172,
      "arece": 7173,
      "ers,": 7174,
      "iter": 7175,
      "▁emprego": 7176,
      "▁\n\nO": 7177,
      "▁brasileiros": 7178,
      "ource": 7179,
      "▁próprios": 7180,
      "▁faça": 7181,
      "▁cadeira": 7182,
      "presidente": 7183,
      "▁matem": 7184,
      "O,": 7185,
      "▁Pesso": 7186,
      "▁trabalhando": 7187,
      "▁reform": 7188,
      "▁breve": 7189,
      "▁gerar": 7190,
      "▁conduz": 7191,
      "▁física": 7192,
      "▁void": 7193,
      "ari": 7194,
      "erá": 7195,
      "▁símbolo": 7196,
      "▁cantora": 7197,
      "ças,": 7198,
      ")\nA": 7199,
      "▁sold": 7200,
      "itamente": 7201,
      "▁superfície": 7202,
      "\nSua": 7203,
      "▁rock": 7204,
      ".Eles": 7205,
      "▁gostaria": 7206,
      "orrer": 7207,
      "▁sor": 7208,
      "▁mudou": 7209,
      "uiz": 7210,
      "▁tivesse": 7211,
      "▁apost": 7212,
      "▁pacientes": 7213,
      "▁Bal": 7214,
      "▁exatamente": 7215,
      "▁Aqui": 7216,
      "▁apresentou": 7217,
      "▁2011,": 7218,
      "▁testem": 7219,
      "▁mensagens": 7220,
      "cular": 7221,
      "\nComo": 7222,
      "▁final,": 7223,
      "6)": 7224,
      "atas": 7225,
      "áx": 7226,
      "abeth": 7227,
      "▁diálogo": 7228,
      "▁Jer": 7229,
      "▁2015,": 7230,
      "BA": 7231,
      "▁delic": 7232,
      "▁\"H": 7233,
      "-T": 7234,
      "▁anú": 7235,
      "▁Wil": 7236,
      "isões": 7237,
      "alhas": 7238,
      "▁índice": 7239,
      "▁2013,": 7240,
      "eço": 7241,
      "▁turn": 7242,
      "▁incluir": 7243,
      "_t": 7244,
      "▁corte": 7245,
      "▁relacionamento": 7246,
      "▁Sul,": 7247,
      "▁campeonato": 7248,
      "ópol": 7249,
      "▁Survey": 7250,
      "III": 7251,
      "-3": 7252,
      "eza,": 7253,
      "arl": 7254,
      "string": 7255,
      "▁general": 7256,
      "▁eleg": 7257,
      ".o": 7258,
      "iros": 7259,
      "olo": 7260,
      "ológico": 7261,
      "asco": 7262,
      "▁estadual": 7263,
      "▁cred": 7264,
      "▁Public": 7265,
      "▁acord": 7266,
      "▁2019,": 7267,
      "▁títulos": 7268,
      "▁2006,": 7269,
      "UT": 7270,
      "▁mídia": 7271,
      "▁instituição": 7272,
      "▁Vale": 7273,
      "▁comuns": 7274,
      "▁fec": 7275,
      "▁domínio": 7276,
      "este,": 7277,
      "inas,": 7278,
      "▁acidente": 7279,
      "work": 7280,
      "Ele": 7281,
      "aixão": 7282,
      "Ac": 7283,
      "▁reais": 7284,
      "▁aspect": 7285,
      "▁civ": 7286,
      "▁participantes": 7287,
      "▁frag": 7288,
      "▁criou": 7289,
      "▁Nossa": 7290,
      "essem": 7291,
      "web": 7292,
      "ester": 7293,
      "▁US$": 7294,
      "çado": 7295,
      "▁interessante": 7296,
      ".\nÉ": 7297,
      "▁companhia": 7298,
      "▁Academia": 7299,
      "onia": 7300,
      "▁Programa": 7301,
      "▁cujo": 7302,
      "ânico": 7303,
      "▁atender": 7304,
      "▁CSS": 7305,
      "wood": 7306,
      "▁personaliz": 7307,
      "nes": 7308,
      "IP": 7309,
      "▁CP": 7310,
      "▁\"G": 7311,
      "▁contou": 7312,
      "▁ano.": 7313,
      "▁menores": 7314,
      "▁ce": 7315,
      "ania": 7316,
      "acidade": 7317,
      "▁autora": 7318,
      "▁brinc": 7319,
      "▁maneiras": 7320,
      "▁Mot": 7321,
      "▁ideal": 7322,
      "ói": 7323,
      "▁administrativa": 7324,
      "▁boas": 7325,
      "▁poema": 7326,
      "▁introduz": 7327,
      "▁movimentos": 7328,
      "▁cuja": 7329,
      "▁perspect": 7330,
      "▁madeira": 7331,
      "adoras": 7332,
      "▁horário": 7333,
      "▁Rua": 7334,
      "▁elenco": 7335,
      "▁corrig": 7336,
      "▁testes": 7337,
      "DE": 7338,
      "▁Fal": 7339,
      "▁enviar": 7340,
      "▁Parque": 7341,
      "▁inspiração": 7342,
      "▁mecan": 7343,
      "▁visita": 7344,
      "▁pros": 7345,
      "▁perfil": 7346,
      "▁específico": 7347,
      "ovsk": 7348,
      "▁\"a": 7349,
      "▁entrega": 7350,
      "▁ouviu": 7351,
      "▁estil": 7352,
      "▁bloque": 7353,
      "▁elefante": 7354,
      "▁ato": 7355,
      "▁considerada": 7356,
      "▁consumo": 7357,
      ".\nH": 7358,
      "\nDes": 7359,
      "▁pés": 7360,
      "regar": 7361,
      "7)": 7362,
      "▁curios": 7363,
      "qü": 7364,
      "▁Los": 7365,
      ".As": 7366,
      "rôn": 7367,
      "icado": 7368,
      "▁hospital": 7369,
      "inst": 7370,
      ".\n\nJ": 7371,
      "pero": 7372,
      "',\n": 7373,
      "▁desf": 7374,
      "8)": 7375,
      "tório": 7376,
      "▁Bon": 7377,
      "▁Daniel": 7378,
      "xx": 7379,
      "▁HT": 7380,
      ".\n\nCarreira": 7381,
      "med": 7382,
      "▁divert": 7383,
      "▁Gil": 7384,
      "▁Vi": 7385,
      "▁tirar": 7386,
      "▁pacote": 7387,
      "▁Band": 7388,
      "▁fortal": 7389,
      "▁[...": 7390,
      "▁esposa": 7391,
      "▁passag": 7392,
      "empre": 7393,
      "Des": 7394,
      "▁funcional": 7395,
      "utação": 7396,
      "▁reflex": 7397,
      "▁Air": 7398,
      "TP": 7399,
      "ênio": 7400,
      "▁matéria": 7401,
      "▁fran": 7402,
      "hi": 7403,
      "▁exclu": 7404,
      "</p>\n\n<p>": 7405,
      "▁inúm": 7406,
      "ista.": 7407,
      "▁Migu": 7408,
      "logia": 7409,
      "ófoc": 7410,
      "▁Music": 7411,
      "▁deverá": 7412,
      "▁George": 7413,
      "▁Departamento": 7414,
      "bilidade": 7415,
      "▁Augu": 7416,
      "▁tranqu": 7417,
      "▁Califór": 7418,
      "▁homenagem": 7419,
      "▁estúdio": 7420,
      "▁Mul": 7421,
      "▁palest": 7422,
      "▁volume": 7423,
      "▁this.": 7424,
      "idos.": 7425,
      "▁\"The": 7426,
      "▁violência": 7427,
      "▁Ga": 7428,
      "son,": 7429,
      "▁So": 7430,
      "icip": 7431,
      ".\n\nFoi": 7432,
      "▁exército": 7433,
      "▁2020,": 7434,
      "hum": 7435,
      "▁Jornal": 7436,
      "íncipe": 7437,
      "▁Ram": 7438,
      "▁levando": 7439,
      "loc": 7440,
      "▁nacionais": 7441,
      "▁instalação": 7442,
      "▁verdade,": 7443,
      "▁haviam": 7444,
      "▁protagon": 7445,
      "sia": 7446,
      "/10": 7447,
      "▁true": 7448,
      "▁identificar": 7449,
      "▁terras": 7450,
      "antos": 7451,
      "t,": 7452,
      "▁Código": 7453,
      "importar": 7454,
      "▁surpre": 7455,
      "▁comprimento": 7456,
      "▁emit": 7457,
      "▁sites": 7458,
      "▁expect": 7459,
      "▁diss": 7460,
      "▁utilização": 7461,
      "▁contrário": 7462,
      "▁QU": 7463,
      "▁gosta": 7464,
      "ville": 7465,
      "▁192": 7466,
      "imp": 7467,
      "▁question": 7468,
      "2)\n": 7469,
      "▁q": 7470,
      "▁veículos": 7471,
      "▁verdadeira": 7472,
      "ster": 7473,
      "▁dorm": 7474,
      "▁época,": 7475,
      "=\"n": 7476,
      "▁nut": 7477,
      "▁IP": 7478,
      "▁familiar": 7479,
      "▁Tecn": 7480,
      "▁estrel": 7481,
      "▁gosto": 7482,
      "▁café": 7483,
      "1-": 7484,
      "▁West": 7485,
      "ader": 7486,
      "▁reflet": 7487,
      "▁Cov": 7488,
      "▁vul": 7489,
      "▁Natal": 7490,
      "▁color": 7491,
      "▁legal": 7492,
      "▁Mora": 7493,
      "▁Let": 7494,
      "▁Sel": 7495,
      "▁Ou": 7496,
      "gin": 7497,
      "ares": 7498,
      "lick": 7499,
      "▁Rússia": 7500,
      "▁Mor": 7501,
      "El": 7502,
      "▁Jac": 7503,
      "quet": 7504,
      "▁caminha": 7505,
      "▁Estadual": 7506,
      "▁tentativa": 7507,
      "▁procurar": 7508,
      "▁Neste": 7509,
      "▁cartão": 7510,
      "▁inferior": 7511,
      "▁portuguesa": 7512,
      "▁sessão": 7513,
      "▁saiu": 7514,
      "▁Ins": 7515,
      "otas": 7516,
      "present": 7517,
      "roc": 7518,
      "▁satisf": 7519,
      "▁cong": 7520,
      "CA": 7521,
      "▁sed": 7522,
      "▁-f": 7523,
      "▁00": 7524,
      "any": 7525,
      "unid": 7526,
      "▁Inform": 7527,
      "▁coleção": 7528,
      "iquei": 7529,
      "▁passagem": 7530,
      "▁pessoais": 7531,
      ",\nE": 7532,
      "▁votos": 7533,
      "▁treinamento": 7534,
      ".java:": 7535,
      "▁M.": 7536,
      "ânica": 7537,
      "▁edifício": 7538,
      "▁indivíduos": 7539,
      "stre": 7540,
      "orou": 7541,
      ".\n\nPor": 7542,
      "▁vagas": 7543,
      "▁Data": 7544,
      "urs": 7545,
      "▁públicos": 7546,
      "▁cook": 7547,
      "▁promov": 7548,
      "▁senso": 7549,
      ".\nComo": 7550,
      "ota": 7551,
      "▁preso": 7552,
      "uário": 7553,
      "▁PR": 7554,
      "▁arre": 7555,
      "▁determinar": 7556,
      "emografia": 7557,
      "▁AM": 7558,
      "▁Core": 7559,
      "98": 7560,
      "écia": 7561,
      "▁renda": 7562,
      "ision": 7563,
      "▁Ciências": 7564,
      "▁frase": 7565,
      "▁resumo": 7566,
      "AG": 7567,
      "▁elog": 7568,
      "▁Região": 7569,
      "▁Catal": 7570,
      "▁API": 7571,
      "\nNo": 7572,
      "▁imediatamente": 7573,
      "];\n": 7574,
      "▁utilizando": 7575,
      "ema,": 7576,
      "inados": 7577,
      "izabeth": 7578,
      "\n|align=center|": 7579,
      "▁United": 7580,
      "▁banh": 7581,
      "\nAt": 7582,
      "▁5,": 7583,
      "▁desenvolve": 7584,
      ".Mas": 7585,
      "DF": 7586,
      ".\n\nBiografia": 7587,
      "ás,": 7588,
      "iago": 7589,
      "▁Hospital": 7590,
      "ross": 7591,
      "▁atrib": 7592,
      "▁padrões": 7593,
      "unha": 7594,
      "▁Organ": 7595,
      "▁acha": 7596,
      "▁Barb": 7597,
      "▁Gl": 7598,
      "ession": 7599,
      "▁chamou": 7600,
      "▁Aqu": 7601,
      "ensões": 7602,
      "▁cabelo": 7603,
      "▁celular": 7604,
      "▁suje": 7605,
      "ênd": 7606,
      "▁presid": 7607,
      "id-19": 7608,
      "====": 7609,
      "▁(b": 7610,
      "ânc": 7611,
      "▁Martin": 7612,
      "rial": 7613,
      "▁extensão": 7614,
      "empor": 7615,
      "▁vira": 7616,
      "▁lou": 7617,
      "▁navio": 7618,
      "▁Sta": 7619,
      "▁determinado": 7620,
      "▁descoberta": 7621,
      "▁descreve": 7622,
      "It": 7623,
      "▁2008,": 7624,
      "▁Pos": 7625,
      "▁Eduardo": 7626,
      "),\n": 7627,
      "mb": 7628,
      "▁costum": 7629,
      "▁Embora": 7630,
      "▁45": 7631,
      "▁canto": 7632,
      "▁localização": 7633,
      "espera": 7634,
      "FC": 7635,
      "▁quaisquer": 7636,
      "iscos": 7637,
      "TV": 7638,
      "ismos": 7639,
      "▁excelente": 7640,
      "▁gt;\n\n": 7641,
      "\";\n": 7642,
      "▁percebeu": 7643,
      "ices": 7644,
      "?S": 7645,
      "rico": 7646,
      "▁Tex": 7647,
      "▁aulas": 7648,
      "▁nav": 7649,
      "▁\n\nEm": 7650,
      "am-se": 7651,
      "▁diagn": 7652,
      "▁situações": 7653,
      "▁conquista": 7654,
      ".\nMas": 7655,
      "ibus": 7656,
      "▁ign": 7657,
      "▁escritório": 7658,
      "▁hotel": 7659,
      "▁espect": 7660,
      "▁rádio": 7661,
      "▁composto": 7662,
      "▁enorme": 7663,
      "key": 7664,
      "view": 7665,
      "▁efica": 7666,
      "guas": 7667,
      "▁irmã": 7668,
      "▁Era": 7669,
      "▁dó": 7670,
      "▁rel=\"n": 7671,
      "▁Quem": 7672,
      "▁conversa": 7673,
      "▁Banco": 7674,
      "date": 7675,
      "▁pesquisas": 7676,
      "▁Princ": 7677,
      "74": 7678,
      "▁infra": 7679,
      "▁AN": 7680,
      "▁quiosque": 7681,
      "▁utilizar": 7682,
      "▁cint": 7683,
      "▁pul": 7684,
      "▁contas": 7685,
      "▁ôn": 7686,
      "▁trabalhou": 7687,
      "▁org.": 7688,
      "▁atuação": 7689,
      "ea": 7690,
      "rantes": 7691,
      "▁doenças": 7692,
      "▁2000,": 7693,
      "▁Antônio": 7694,
      "▁Nic": 7695,
      "osofia": 7696,
      "▁motiv": 7697,
      "▁Cre": 7698,
      "ie,": 7699,
      "▁pain": 7700,
      "hares": 7701,
      "▁japon": 7702,
      "▁câm": 7703,
      "▁pôde": 7704,
      "▁clique": 7705,
      "▁Oliveira": 7706,
      "▁versões": 7707,
      "▁Van": 7708,
      "ôs": 7709,
      "ricultura": 7710,
      "▁topo": 7711,
      "▁Fel": 7712,
      "▁perform": 7713,
      "mart": 7714,
      "▁seguinte,": 7715,
      "ling": 7716,
      "▁iniciou": 7717,
      "endário": 7718,
      "▁alemão": 7719,
      "▁porém,": 7720,
      "orb": 7721,
      "▁jac": 7722,
      "s\"": 7723,
      "oo": 7724,
      "▁prejud": 7725,
      "▁chamar": 7726,
      "▁PM": 7727,
      "▁dirigido": 7728,
      "▁Enc": 7729,
      "▁advers": 7730,
      "▁Desde": 7731,
      "▁\"p": 7732,
      "erado": 7733,
      "▁mostrou": 7734,
      "▁fáb": 7735,
      "▁Poss": 7736,
      "▁produzir": 7737,
      "rativo": 7738,
      "▁antigos": 7739,
      "riel": 7740,
      "▁oportunidades": 7741,
      "▁feitos": 7742,
      "▁leve": 7743,
      "▁cura": 7744,
      "▁XIX": 7745,
      "▁Cir": 7746,
      "▁carga": 7747,
      "▁professores": 7748,
      "▁cod": 7749,
      "tica": 7750,
      "▁país.": 7751,
      "▁solicitação": 7752,
      "▁gre": 7753,
      "manda": 7754,
      "▁passado,": 7755,
      "▁pontu": 7756,
      "▁exercício": 7757,
      "pa,": 7758,
      "!!!": 7759,
      "▁recon": 7760,
      "just": 7761,
      "▁Senhor": 7762,
      "▁gas": 7763,
      "▁Globo": 7764,
      "isse": 7765,
      "▁Até": 7766,
      "▁anteriores": 7767,
      "▁distante": 7768,
      "▁políticos": 7769,
      "pot": 7770,
      "▁impera": 7771,
      "atic": 7772,
      "serve": 7773,
      "▁ang": 7774,
      "df": 7775,
      "arou": 7776,
      "95": 7777,
      "▁secretário": 7778,
      "▁dupla": 7779,
      "▁300": 7780,
      "▁otim": 7781,
      "uild": 7782,
      "▁Exército": 7783,
      "▁-o": 7784,
      "Result": 7785,
      "▁ensin": 7786,
      "emporâne": 7787,
      "▁chance": 7788,
      "afka": 7789,
      "sch": 7790,
      "▁Verifique": 7791,
      "▁colon": 7792,
      "▁email": 7793,
      "▁virtu": 7794,
      "68": 7795,
      ".com.br": 7796,
      "▁bomb": 7797,
      "ody": 7798,
      "▁crítica": 7799,
      "▁esquec": 7800,
      "▁https://": 7801,
      "▁IV": 7802,
      "\nPois": 7803,
      "▁Então,": 7804,
      "Mas": 7805,
      "▁Steve": 7806,
      "▁Sistema": 7807,
      "eight": 7808,
      "▁exterior": 7809,
      "▁plac": 7810,
      ".\nG": 7811,
      "▁fore": 7812,
      "▁ilust": 7813,
      "▁orden": 7814,
      "▁style": 7815,
      "▁Índ": 7816,
      "▁FI": 7817,
      "▁aparel": 7818,
      "▁5.": 7819,
      "▁espiritu": 7820,
      "▁(J": 7821,
      "▁PC": 7822,
      "idas.": 7823,
      "▁Din": 7824,
      "▁fen": 7825,
      "DA": 7826,
      "ception": 7827,
      "▁nove": 7828,
      "alho": 7829,
      "cida": 7830,
      "olina": 7831,
      "▁|1": 7832,
      "▁C.": 7833,
      "▁aust": 7834,
      "▁top": 7835,
      "▁velho": 7836,
      "uvent": 7837,
      "▁regime": 7838,
      "▁Eg": 7839,
      "▁deleg": 7840,
      "▁mesmos": 7841,
      "▁bate": 7842,
      "▁entend": 7843,
      "SC": 7844,
      "▁explica": 7845,
      "▁Desenvolvimento": 7846,
      "▁aplicativos": 7847,
      "olf": 7848,
      "▁\n\nC": 7849,
      "▁brilhante": 7850,
      "Un": 7851,
      "▁Class": 7852,
      "usc": 7853,
      "tações": 7854,
      "▁favor,": 7855,
      "▁significado": 7856,
      "▁dout": 7857,
      "▁fronteira": 7858,
      "nde-se": 7859,
      "▁Post": 7860,
      "rich": 7861,
      "▁Imag": 7862,
      "ção.": 7863,
      "▁Gom": 7864,
      "ficial": 7865,
      "ai,": 7866,
      "▁veículo": 7867,
      "▁char": 7868,
      "ificada": 7869,
      "etor": 7870,
      "▁custos": 7871,
      "▁dias,": 7872,
      "yc": 7873,
      "▁espalh": 7874,
      "▁células": 7875,
      "olução": 7876,
      "▁BR": 7877,
      "▁oficiais": 7878,
      "▁mex": 7879,
      "▁sinais": 7880,
      "▁aquela": 7881,
      "▁gols": 7882,
      "reno": 7883,
      "ration": 7884,
      "plication": 7885,
      "▁fãs": 7886,
      "▁guard": 7887,
      "ícara": 7888,
      "▁recentemente": 7889,
      "▁sorr": 7890,
      "ogadores": 7891,
      "▁++": 7892,
      "▁prefer": 7893,
      "ucle": 7894,
      "amento.": 7895,
      "▁artigos": 7896,
      "âmica": 7897,
      "▁intenção": 7898,
      "▁bem,": 7899,
      "▁Dez": 7900,
      "▁vib": 7901,
      "▁Senhora": 7902,
      "▁constante": 7903,
      "▁proteger": 7904,
      "▁2009,": 7905,
      "▁Estud": 7906,
      "▁causar": 7907,
      ".\n\nDemografia": 7908,
      "▁iniciar": 7909,
      "▁cult": 7910,
      "cara": 7911,
      "▁pov": 7912,
      "ava,": 7913,
      "▁use": 7914,
      "▁PAR": 7915,
      "▁definido": 7916,
      "▁acaba": 7917,
      "▁conquistou": 7918,
      "órico": 7919,
      "▁ST": 7920,
      "▁NE": 7921,
      "▁publicação": 7922,
      "▁descrição": 7923,
      "▁posta": 7924,
      "▁marketing": 7925,
      "▁feminino": 7926,
      "▁concurso": 7927,
      "▁desejo": 7928,
      "▁publ": 7929,
      "▁tira": 7930,
      "▁cuidado": 7931,
      "▁descobre": 7932,
      "▁global": 7933,
      "▁empreend": 7934,
      "atu": 7935,
      ".f": 7936,
      "▁poderiam": 7937,
      "▁autores": 7938,
      "▁rosto": 7939,
      "▁Corpo": 7940,
      "rão": 7941,
      "-5": 7942,
      "▁lojas": 7943,
      "▁gt;\n</code>": 7944,
      "▁Democ": 7945,
      "▁Job": 7946,
      "erap": 7947,
      "▁composta": 7948,
      "▁passaram": 7949,
      "▁defic": 7950,
      "▁parcial": 7951,
      "▁confront": 7952,
      "▁xícara": 7953,
      "▁devo": 7954,
      "▁inicia": 7955,
      "▁Pereira": 7956,
      "eij": 7957,
      "▁comerciais": 7958,
      "▁naturais": 7959,
      "▁adqu": 7960,
      "▁amost": 7961,
      "▁pré-": 7962,
      "▁objetivos": 7963,
      "▁Stein": 7964,
      "assem": 7965,
      "▁dipl": 7966,
      "▁pandemia": 7967,
      "▁Pesquis": 7968,
      "▁arquitetura": 7969,
      "▁reconhecimento": 7970,
      "hop": 7971,
      "▁Assembleia": 7972,
      "▁Empres": 7973,
      "▁Bot": 7974,
      "▁mesa": 7975,
      "▁191": 7976,
      "▁Log": 7977,
      "▁bara": 7978,
      "▁necessários": 7979,
      "▁Henrique": 7980,
      "▁apareceu": 7981,
      "▁lançada": 7982,
      "▁recus": 7983,
      "▁densidade": 7984,
      "\nNa": 7985,
      "arte": 7986,
      "▁Série": 7987,
      "▁EST": 7988,
      "ática,": 7989,
      "▁rob": 7990,
      ".N": 7991,
      "▁lilás": 7992,
      "▁jun": 7993,
      "▁pan": 7994,
      "▁jo": 7995,
      "▁Som": 7996,
      "ilhar": 7997,
      "▁coleg": 7998,
      "nça,": 7999,
      ".\n\nUm": 8000,
      "▁Técn": 8001,
      "itib": 8002,
      "itados": 8003,
      "▁espaços": 8004,
      "▁aprec": 8005,
      "▁verde": 8006,
      "entil": 8007,
      "▁adicionais": 8008,
      "▁adap": 8009,
      "ácia": 8010,
      "▁flex": 8011,
      "▁</p>\n<p>": 8012,
      "icina": 8013,
      "rupção": 8014,
      "elho,": 8015,
      "▁danos": 8016,
      "▁Use": 8017,
      "\nCon": 8018,
      "▁nin": 8019,
      "▁Primeira": 8020,
      "rs": 8021,
      "▁organizações": 8022,
      "\n\nL": 8023,
      "▁tub": 8024,
      "▁Bor": 8025,
      "▁André": 8026,
      "▁persegu": 8027,
      "▁Tudo": 8028,
      "▁1990": 8029,
      "▁famoso": 8030,
      "com/": 8031,
      "▁pomar": 8032,
      "board": 8033,
      "encia": 8034,
      "gal,": 8035,
      "▁formulário": 8036,
      "41": 8037,
      "▁explorar": 8038,
      "▁Vitória": 8039,
      "▁aspectos": 8040,
      "agram": 8041,
      "▁relacionados": 8042,
      "-H": 8043,
      "▁foc": 8044,
      "▁aventura": 8045,
      "▁segred": 8046,
      "SON": 8047,
      "▁fantas": 8048,
      "urb": 8049,
      "uck": 8050,
      "Code>": 8051,
      "▁Cou": 8052,
      "83": 8053,
      "odel": 8054,
      "▁\"d": 8055,
      "▁src": 8056,
      "?\nA": 8057,
      "▁Ta": 8058,
      "▁model": 8059,
      "▁36": 8060,
      "▁escrav": 8061,
      "ocument": 8062,
      "▁Canadá": 8063,
      "ank": 8064,
      "tory": 8065,
      "ntão": 8066,
      "▁hoje,": 8067,
      "▁fortes": 8068,
      "▁dóla": 8069,
      "Script": 8070,
      "▁Encont": 8071,
      "▁ameaç": 8072,
      "▁posteriormente": 8073,
      "cond": 8074,
      "wnload": 8075,
      "azer": 8076,
      "▁Franklin": 8077,
      "▁conced": 8078,
      "▁telefone": 8079,
      "meric": 8080,
      "endas": 8081,
      "▁candidatos": 8082,
      "▁oferta": 8083,
      "▁Segurança": 8084,
      "ofol": 8085,
      "▁enfrentar": 8086,
      "▁implementação": 8087,
      "▁arran": 8088,
      "▁retorna": 8089,
      "▁transmissão": 8090,
      "ury": 8091,
      "ômetros": 8092,
      "▁próprias": 8093,
      "▁Miguel": 8094,
      "íbl": 8095,
      "Ar": 8096,
      "▁ficaram": 8097,
      "▁páginas": 8098,
      "inn": 8099,
      "▁leste": 8100,
      "▁doce": 8101,
      "\n\nN": 8102,
      "enhum": 8103,
      "▁Bolson": 8104,
      "▁expans": 8105,
      "▁Enquanto": 8106,
      "iana,": 8107,
      "▁Abril": 8108,
      "gramas": 8109,
      "▁Manuel": 8110,
      "▁32": 8111,
      "▁salv": 8112,
      "▁desafios": 8113,
      "▁México": 8114,
      "▁lt;/div": 8115,
      "▁reforma": 8116,
      "▁mág": 8117,
      "')": 8118,
      "▁vinc": 8119,
      "▁masculino": 8120,
      "42": 8121,
      "▁minut": 8122,
      "▁CN": 8123,
      "▁populares": 8124,
      "▁emisso": 8125,
      "▁(V": 8126,
      ".Além": 8127,
      "▁Serra": 8128,
      "▁abr": 8129,
      "▁mob": 8130,
      "OP": 8131,
      "avo": 8132,
      "▁líqu": 8133,
      "▁uns": 8134,
      "inda,": 8135,
      "oque": 8136,
      "▁Hob": 8137,
      "▁adqui": 8138,
      "▁185": 8139,
      "cendo": 8140,
      "issa": 8141,
      "▁cobertos": 8142,
      "elecione": 8143,
      "▁Alguns": 8144,
      "▁More": 8145,
      "▁Brown": 8146,
      "▁bater": 8147,
      "▁card": 8148,
      "▁09": 8149,
      "▁vida.": 8150,
      "▁eleição": 8151,
      "▁daquele": 8152,
      "right": 8153,
      "unidense": 8154,
      "▁perguntas": 8155,
      ".\n\n5.": 8156,
      "▁Of": 8157,
      "▁apaix": 8158,
      "▁Blog": 8159,
      "▁pun": 8160,
      "▁tarefa": 8161,
      "inária": 8162,
      "▁1996": 8163,
      "égio": 8164,
      "itz": 8165,
      "▁ON": 8166,
      "▁grau": 8167,
      ".\n\nDes": 8168,
      "▁acadêm": 8169,
      "pto": 8170,
      "▁marcou": 8171,
      "▁evolução": 8172,
      "▁type": 8173,
      "▁mere": 8174,
      "ológica": 8175,
      "Data": 8176,
      "ades": 8177,
      "▁guer": 8178,
      "icardo": 8179,
      "\").": 8180,
      "▁críticas": 8181,
      "IB": 8182,
      "▁extremamente": 8183,
      "▁domingo": 8184,
      "esp": 8185,
      "▁estrelas": 8186,
      "▁cantor": 8187,
      "');\n": 8188,
      "portes": 8189,
      "▁céu": 8190,
      "▁Ham": 8191,
      "OC": 8192,
      "atar": 8193,
      "itária": 8194,
      "▁fins": 8195,
      "arqu": 8196,
      "Quais": 8197,
      "▁comparação": 8198,
      "íbrio": 8199,
      "▁infantil": 8200,
      "▁Ferreira": 8201,
      "▁resistência": 8202,
      "▁viagens": 8203,
      "▁Final": 8204,
      "▁incom": 8205,
      "▁científica": 8206,
      "▁Rem": 8207,
      "▁propósito": 8208,
      "▁conflito": 8209,
      "▁condado": 8210,
      "▁história,": 8211,
      "▁combust": 8212,
      "▁href=\"https://": 8213,
      "▁Jan": 8214,
      "▁Blu": 8215,
      "âns": 8216,
      "ager": 8217,
      "▁convenc": 8218,
      "▁Ouro": 8219,
      "▁apresentado": 8220,
      "-8": 8221,
      "▁Son": 8222,
      "▁oeste": 8223,
      "▁Inde": 8224,
      "osa,": 8225,
      "”.": 8226,
      "▁janela": 8227,
      "▁Met": 8228,
      "▁inspirado": 8229,
      "▁novel": 8230,
      "▁vice-": 8231,
      "▁familia": 8232,
      "▁[...]": 8233,
      "▁cancel": 8234,
      "▁investimentos": 8235,
      "▁atingir": 8236,
      "ilização": 8237,
      "▁taxas": 8238,
      "▁declaração": 8239,
      "▁Fundação": 8240,
      "▁crime": 8241,
      "MS": 8242,
      "óqu": 8243,
      "▁consist": 8244,
      ".\nAlém": 8245,
      "idental": 8246,
      "▁cm": 8247,
      "▁lugar,": 8248,
      "teis": 8249,
      "▁Bahia": 8250,
      "App": 8251,
      "▁Produz": 8252,
      "▁tentou": 8253,
      "As": 8254,
      "▁dispositivos": 8255,
      "chaik": 8256,
      "riga": 8257,
      "▁Portugal,": 8258,
      "100": 8259,
      "▁08": 8260,
      "▁mas,": 8261,
      "▁ligação": 8262,
      "▁regra": 8263,
      "▁criando": 8264,
      "▁Port": 8265,
      "▁Ens": 8266,
      "▁4:": 8267,
      "▁respira": 8268,
      "chaikovsk": 8269,
      "▁casal": 8270,
      "▁produtor": 8271,
      "▁dificuldades": 8272,
      "▁facilmente": 8273,
      "▁investigação": 8274,
      "▁University": 8275,
      "▁Pi": 8276,
      "▁Monte": 8277,
      "▁status": 8278,
      "▁0.": 8279,
      "co.": 8280,
      "▁vergon": 8281,
      "▁ritmo": 8282,
      "▁encontrada": 8283,
      "íderes": 8284,
      "▁estará": 8285,
      "▁diretório": 8286,
      "inário": 8287,
      "▁Goi": 8288,
      "▁sexual": 8289,
      "▁buscar": 8290,
      "▁Roberto": 8291,
      "▁apart": 8292,
      "▁manip": 8293,
      "▁depende": 8294,
      "▁Então": 8295,
      "guesia": 8296,
      ".im": 8297,
      "▁encant": 8298,
      "▁pensamento": 8299,
      "▁assinatura": 8300,
      "▁(int": 8301,
      "ostado": 8302,
      "rev": 8303,
      "anço": 8304,
      "▁UN": 8305,
      "orizonte": 8306,
      "▁precisar": 8307,
      "▁Campo": 8308,
      ".B": 8309,
      "▁Far": 8310,
      "▁conheceu": 8311,
      "▁juntos": 8312,
      "▁porto": 8313,
      "enida": 8314,
      "▁imposs": 8315,
      "▁considerar": 8316,
      "▁públicas": 8317,
      "▁agora,": 8318,
      "▁Mach": 8319,
      "▁false": 8320,
      "rimas": 8321,
      "▁música,": 8322,
      "▁escala": 8323,
      "▁imprensa": 8324,
      "'\n": 8325,
      "▁meios": 8326,
      "▁cerim": 8327,
      "ten": 8328,
      "▁graça": 8329,
      "▁resto": 8330,
      "▁compil": 8331,
      "▁ataques": 8332,
      ".\nNão": 8333,
      "/d": 8334,
      "▁Porém,": 8335,
      "▁componente": 8336,
      "▁[]": 8337,
      "▁evid": 8338,
      "▁dív": 8339,
      "▁marcas": 8340,
      "ador.": 8341,
      "ável.": 8342,
      "▁dram": 8343,
      "▁pedra": 8344,
      "▁drama": 8345,
      "▁Execut": 8346,
      "▁funcionar": 8347,
      "ando-se": 8348,
      "▁mestre": 8349,
      "▁intit": 8350,
      "▁perigos": 8351,
      "-9": 8352,
      "ndon": 8353,
      "▁construído": 8354,
      "gh": 8355,
      "▁lembrar": 8356,
      "á-la": 8357,
      "utra": 8358,
      "▁terror": 8359,
      "72": 8360,
      "Para": 8361,
      "▁acel": 8362,
      "▁cidade.": 8363,
      "▁realizadas": 8364,
      "tn": 8365,
      "▁Fred": 8366,
      "▁norte-americano": 8367,
      "▁começo": 8368,
      "▁liderança": 8369,
      "ambu": 8370,
      "EP": 8371,
      "▁liga": 8372,
      "▁cál": 8373,
      "▁ous": 8374,
      "▁definit": 8375,
      "in.": 8376,
      "▁assistência": 8377,
      "▁Seuss": 8378,
      "▁1997": 8379,
      "▁Nat": 8380,
      "ertos": 8381,
      "le,": 8382,
      "▁alterar": 8383,
      "▁Só": 8384,
      ".\n\nDe": 8385,
      "ulada": 8386,
      "▁(2": 8387,
      "td": 8388,
      "▁prol": 8389,
      "cr": 8390,
      "abil": 8391,
      "a)": 8392,
      "▁clima": 8393,
      "▁inicialmente": 8394,
      "▁vid": 8395,
      "-nos": 8396,
      "▁Mos": 8397,
      "▁Ast": 8398,
      "▁(por": 8399,
      "▁encontre": 8400,
      "%,": 8401,
      "▁recuperar": 8402,
      "▁rápida": 8403,
      "▁rodada": 8404,
      "▁fasc": 8405,
      "▁decisões": 8406,
      "▁mínimo": 8407,
      "▁env": 8408,
      "inal,": 8409,
      "▁tempo.": 8410,
      "▁tag": 8411,
      "iev": 8412,
      "▁pediu": 8413,
      "▁Sér": 8414,
      "entic": 8415,
      "ar-se": 8416,
      "grafo": 8417,
      "em>": 8418,
      "▁policiais": 8419,
      "Serv": 8420,
      "▁diferenc": 8421,
      "\nNão": 8422,
      "▁pintura": 8423,
      "amentos,": 8424,
      "▁sombrio": 8425,
      "▁tradicionais": 8426,
      "':": 8427,
      "ófocles": 8428,
      "▁Lim": 8429,
      "▁antecip": 8430,
      "itoral": 8431,
      "nal": 8432,
      "use": 8433,
      "▁portas": 8434,
      "▁mais,": 8435,
      "▁acum": 8436,
      "\nSuas": 8437,
      "▁Faculdade": 8438,
      "▁assassin": 8439,
      "afa": 8440,
      "▁Ib": 8441,
      "▁estrada": 8442,
      "▁necessária": 8443,
      "ificados": 8444,
      "▁escap": 8445,
      "▁Cria": 8446,
      "▁inteiro": 8447,
      "▁(0": 8448,
      "▁sonho": 8449,
      "▁Público": 8450,
      "▁aposent": 8451,
      "▁tempest": 8452,
      "▁tóp": 8453,
      "▁Escreva": 8454,
      "utu": 8455,
      "▁opt": 8456,
      "rimônio": 8457,
      "▁loop": 8458,
      "▁fé": 8459,
      "▁Espírito": 8460,
      "▁Richard": 8461,
      "▁Londres": 8462,
      "▁Mov": 8463,
      "▁Cristo": 8464,
      "▁(3": 8465,
      "▁Nas": 8466,
      "ucion": 8467,
      "ual,": 8468,
      "km": 8469,
      "▁Pode": 8470,
      "▁milhares": 8471,
      "últ": 8472,
      "entes.": 8473,
      "óis": 8474,
      "book": 8475,
      "▁tentei": 8476,
      "▁jó": 8477,
      "▁ach": 8478,
      "rante": 8479,
      "ntemente": 8480,
      "▁produzido": 8481,
      "▁(l": 8482,
      "▁MP": 8483,
      "▁universo": 8484,
      "▁Leon": 8485,
      "▁meia": 8486,
      "▁Tro": 8487,
      "▁Legisl": 8488,
      "▁cumpri": 8489,
      "▁Méd": 8490,
      "▁mantém": 8491,
      "▁Jose": 8492,
      "Value": 8493,
      "▁barra": 8494,
      "▁City": 8495,
      "▁equival": 8496,
      "▁editor": 8497,
      "▁xen": 8498,
      "imenta": 8499,
      "▁local,": 8500,
      "▁ensa": 8501,
      "▁Tour": 8502,
      "▁May": 8503,
      "ule": 8504,
      "▁sentindo": 8505,
      "▁costa": 8506,
      "▁Mass": 8507,
      "or.": 8508,
      "▁tendência": 8509,
      "▁interface": 8510,
      "▁frac": 8511,
      "▁exemplos": 8512,
      "ieta": 8513,
      ".\nEle": 8514,
      "▁iniciativa": 8515,
      "▁Regional": 8516,
      "▁AC": 8517,
      "▁anex": 8518,
      "▁(como": 8519,
      "/p": 8520,
      "▁clubes": 8521,
      "▁aberta": 8522,
      "ível,": 8523,
      "IG": 8524,
      "▁Ep": 8525,
      "▁</s>\nO": 8526,
      "▁Jardim": 8527,
      "▁Jean": 8528,
      "esia": 8529,
      ".\nUm": 8530,
      "▁Const": 8531,
      "▁with": 8532,
      "▁leis": 8533,
      "1)\n": 8534,
      "ond": 8535,
      "▁também,": 8536,
      "▁Rei": 8537,
      "osas": 8538,
      "\nEx": 8539,
      "orno": 8540,
      "Al": 8541,
      "▁funcionamento": 8542,
      "▁caracte": 8543,
      "▁Lea": 8544,
      "▁delas": 8545,
      "▁remover": 8546,
      "▁trilha": 8547,
      "▁graças": 8548,
      "▁Star": 8549,
      ".\n\nEl": 8550,
      "▁patro": 8551,
      "▁torneio": 8552,
      "▁guia": 8553,
      "ços,": 8554,
      "▁justiça": 8555,
      "▁Twitter": 8556,
      "▁direto": 8557,
      "▁autoridade": 8558,
      "▁exceção": 8559,
      "entro": 8560,
      "▁chama": 8561,
      "AÇÃO": 8562,
      "Query": 8563,
      "▁identidade": 8564,
      "▁vila": 8565,
      "▁ciclo": 8566,
      "▁imper": 8567,
      "▁exibição": 8568,
      "▁estrela": 8569,
      "▁180": 8570,
      "▁concord": 8571,
      "▁Card": 8572,
      "▁daqu": 8573,
      "▁animal": 8574,
      "▁brilho": 8575,
      "tada": 8576,
      "ordeste": 8577,
      "▁vídeos": 8578,
      "▁indíg": 8579,
      "▁cumpr": 8580,
      "▁adult": 8581,
      "▁ideias": 8582,
      "▁disse:": 8583,
      "▁01": 8584,
      "▁Sw": 8585,
      "▁()`": 8586,
      "íamos": 8587,
      "▁Rad": 8588,
      "▁desper": 8589,
      "▁paciente": 8590,
      "ki": 8591,
      "▁prefeitura": 8592,
      "▁Forex": 8593,
      "pat": 8594,
      "▁rodo": 8595,
      "▁receita": 8596,
      "BT": 8597,
      "▁quilômetros": 8598,
      "▁</p>\n\n<": 8599,
      "▁inteligência": 8600,
      "▁Nesse": 8601,
      "▁À": 8602,
      "rosso": 8603,
      "ultado": 8604,
      "▁Trabalho": 8605,
      "▁humana": 8606,
      "ir.": 8607,
      "▁clín": 8608,
      "▁Ext": 8609,
      "colh": 8610,
      "rite": 8611,
      "xml": 8612,
      "▁deriv": 8613,
      "▁ont": 8614,
      "▁name": 8615,
      "▁parecer": 8616,
      "ateg": 8617,
      "▁âmb": 8618,
      "▁ficam": 8619,
      "▁sangue": 8620,
      "▁entidade": 8621,
      "adura": 8622,
      "▁subs": 8623,
      "▁ninfa": 8624,
      "▁apropri": 8625,
      "▁seção": 8626,
      "▁instância": 8627,
      "▁Charles": 8628,
      "▁Bre": 8629,
      "▁perdido": 8630,
      "▁moradores": 8631,
      ".t": 8632,
      "▁he": 8633,
      "quete": 8634,
      "ante.": 8635,
      "▁independente": 8636,
      "▁roupas": 8637,
      "IO": 8638,
      "▁responsáveis": 8639,
      "▁domést": 8640,
      "▁contin": 8641,
      "▁anivers": 8642,
      "▁direita": 8643,
      "▁</li>\n<li>": 8644,
      "ídio": 8645,
      "ferm": 8646,
      "ism": 8647,
      "iner": 8648,
      "peões": 8649,
      "▁garo": 8650,
      "▁seriam": 8651,
      "\n\nPara": 8652,
      "▁Distrito": 8653,
      "▁limites": 8654,
      "ate,": 8655,
      "▁cadas": 8656,
      "▁religios": 8657,
      "▁Projeto": 8658,
      "iva.": 8659,
      "▁gén": 8660,
      "▁impedir": 8661,
      "▁ago": 8662,
      "/ou": 8663,
      "▁Phil": 8664,
      "▁ressal": 8665,
      "▁abre": 8666,
      "▁rol": 8667,
      "u.": 8668,
      "▁reclam": 8669,
      "▁cozinha": 8670,
      "▁adicional": 8671,
      "érito": 8672,
      "uração": 8673,
      "/11": 8674,
      "▁(\n": 8675,
      "▁Superior": 8676,
      "▁somos": 8677,
      "▁Jud": 8678,
      "▁esforço": 8679,
      "▁Microsoft": 8680,
      "gen": 8681,
      "\n1": 8682,
      "▁2007,": 8683,
      "▁tect": 8684,
      "▁chegada": 8685,
      "raria": 8686,
      "ission": 8687,
      "▁Condado": 8688,
      "▁Pac": 8689,
      "▁dedicado": 8690,
      "▁trouxe": 8691,
      "▁frequência": 8692,
      "▁Marie": 8693,
      "73": 8694,
      "▁proto": 8695,
      "▁faixas": 8696,
      "▁gel": 8697,
      "tividade": 8698,
      "▁Sociedade": 8699,
      "▁gerenc": 8700,
      "▁\"o": 8701,
      "▁iP": 8702,
      "▁parque": 8703,
      "-20": 8704,
      "▁Stre": 8705,
      "ipais": 8706,
      "▁verifique": 8707,
      "▁mig": 8708,
      "php": 8709,
      "▁bic": 8710,
      "érm": 8711,
      "esa,": 8712,
      "▁Arte": 8713,
      "ower": 8714,
      "▁desempenh": 8715,
      "▁cobertura": 8716,
      "▁fui": 8717,
      "▁estratégias": 8718,
      "▁Lar": 8719,
      "▁flor": 8720,
      "▁Foto": 8721,
      "▁Max": 8722,
      "▁recebendo": 8723,
      "▁American": 8724,
      "▁Mem": 8725,
      "unicípios": 8726,
      "▁substituir": 8727,
      "▁usadas": 8728,
      "▁Roc": 8729,
      "▁verão": 8730,
      "▁estreou": 8731,
      "rome": 8732,
      "▁sábado": 8733,
      "▁cheia": 8734,
      "▁Sco": 8735,
      "ativa,": 8736,
      "▁Serviço": 8737,
      "▁bens": 8738,
      "▁\"b": 8739,
      "▁Divisão": 8740,
      "-4": 8741,
      "▁resg": 8742,
      "▁permaneceu": 8743,
      "▁desenvolvido": 8744,
      "▁específicos": 8745,
      "▁jornalista": 8746,
      "alidades": 8747,
      "▁compartilhar": 8748,
      "▁apaixon": 8749,
      "▁Brasília": 8750,
      "▁dan": 8751,
      "▁recém": 8752,
      "bia": 8753,
      "▁-l": 8754,
      "▁acredita": 8755,
      "▁cav": 8756,
      "▁devol": 8757,
      "▁Seb": 8758,
      "▁largura": 8759,
      "▁rad": 8760,
      "▁coopera": 8761,
      "úsica": 8762,
      "▁Gerais": 8763,
      "▁vaga": 8764,
      "rina": 8765,
      "▁planta": 8766,
      "user": 8767,
      "\"|": 8768,
      "▁dependendo": 8769,
      "▁cirurg": 8770,
      "▁carn": 8771,
      "atória": 8772,
      "▁posicion": 8773,
      "▁ord": 8774,
      "jamin": 8775,
      ".R": 8776,
      "hos,": 8777,
      "▁labora": 8778,
      "▁municipal": 8779,
      "VD": 8780,
      "▁Sand": 8781,
      "▁oferec": 8782,
      "▁cód": 8783,
      "rést": 8784,
      "▁Especial": 8785,
      "▁Pern": 8786,
      "▁estranho": 8787,
      "imar": 8788,
      "▁Apple": 8789,
      "▁plataform": 8790,
      "posições": 8791,
      "Text": 8792,
      "▁Engenh": 8793,
      "▁folhas": 8794,
      "▁treinador": 8795,
      "▁senhor": 8796,
      "▁oposição": 8797,
      "▁lança": 8798,
      "_p": 8799,
      "----------------": 8800,
      "▁Ps": 8801,
      "▁|19": 8802,
      "raw": 8803,
      "▁canções": 8804,
      "▁Sto": 8805,
      "enções": 8806,
      "****": 8807,
      "▁vocal": 8808,
      "▁Austrália": 8809,
      "▁episódios": 8810,
      "▁bons": 8811,
      "▁recorde": 8812,
      "▁líderes": 8813,
      "▁Setembro": 8814,
      "osos": 8815,
      "Man": 8816,
      "▁equipa": 8817,
      "▁Ior": 8818,
      "▁Maio": 8819,
      "OT": 8820,
      "▁vert": 8821,
      "The": 8822,
      "▁tarefas": 8823,
      "unn": 8824,
      "▁Teatro": 8825,
      "▁e/ou": 8826,
      "content": 8827,
      "▁individual": 8828,
      "▁play": 8829,
      "▁anteriormente": 8830,
      "▁Park": 8831,
      "▁align": 8832,
      "chas": 8833,
      "ráficos": 8834,
      "▁estivesse": 8835,
      "▁Via": 8836,
      "▁quente": 8837,
      "ertar": 8838,
      "▁invas": 8839,
      "men": 8840,
      "tr": 8841,
      "▁Pap": 8842,
      "▁Sr.": 8843,
      "remo": 8844,
      "▁variáveis": 8845,
      "▁baseada": 8846,
      "▁(W": 8847,
      "estar": 8848,
      "Inst": 8849,
      "essage": 8850,
      "▁Portal": 8851,
      "▁visual": 8852,
      "▁ale": 8853,
      "▁instruções": 8854,
      "new": 8855,
      "▁6,": 8856,
      "▁errado": 8857,
      "▁publicada": 8858,
      "▁definição": 8859,
      "▁gerencia": 8860,
      "▁gram": 8861,
      "▁categorias": 8862,
      "▁automaticamente": 8863,
      "udes": 8864,
      "iloto": 8865,
      "o:": 8866,
      "adre": 8867,
      "▁construt": 8868,
      "ravés": 8869,
      "ítulos": 8870,
      "ani": 8871,
      "áter": 8872,
      "▁plu": 8873,
      "count": 8874,
      "itava": 8875,
      "▁(v": 8876,
      "▁Ricardo": 8877,
      "imo,": 8878,
      "▁comunidades": 8879,
      "▁ônibus": 8880,
      "▁....": 8881,
      "ificando": 8882,
      "▁PRO": 8883,
      "▁{\n\n": 8884,
      "▁SQL": 8885,
      "▁Cada": 8886,
      "▁Ron": 8887,
      "rato": 8888,
      "sen": 8889,
      "▁Argentina": 8890,
      "Cl": 8891,
      ".C.": 8892,
      "py": 8893,
      "▁posse": 8894,
      "▁investir": 8895,
      "▁pisc": 8896,
      "▁poderão": 8897,
      "▁assust": 8898,
      "▁Administração": 8899,
      "▁vencer": 8900,
      "▁originalmente": 8901,
      "▁composição": 8902,
      "▁conhecidos": 8903,
      "▁Mark": 8904,
      "ing.": 8905,
      "▁parlam": 8906,
      "▁comédia": 8907,
      "▁palco": 8908,
      "inclu": 8909,
      "▁/&": 8910,
      "▁1980": 8911,
      "izou": 8912,
      "▁permitindo": 8913,
      "\n0": 8914,
      "anal": 8915,
      "▁fundada": 8916,
      "▁Ó": 8917,
      "▁águas": 8918,
      "▁tropeçou": 8919,
      "one,": 8920,
      "▁Paraná": 8921,
      "▁eletrônicos": 8922,
      "t.": 8923,
      "▁modificar": 8924,
      "▁1995": 8925,
      "▁gig": 8926,
      "itê": 8927,
      "▁tradição": 8928,
      "▁monito": 8929,
      "▁possibil": 8930,
      "▁188": 8931,
      "▁expand": 8932,
      "ella": 8933,
      "▁100%": 8934,
      "▁serve": 8935,
      "▁2021,": 8936,
      "▁normal": 8937,
      "▁componentes": 8938,
      "▁jogo,": 8939,
      "▁Tri": 8940,
      "▁Roma": 8941,
      "▁admiração": 8942,
      "▁Fol": 8943,
      "▁garante": 8944,
      "úcleo": 8945,
      "▁Sara": 8946,
      "▁atualizar": 8947,
      "▁metal": 8948,
      "▁Produza": 8949,
      "NA": 8950,
      "▁abriu": 8951,
      "▁Champ": 8952,
      "▁ilum": 8953,
      "orial": 8954,
      "▁Federação": 8955,
      "h.": 8956,
      "▁atualização": 8957,
      "▁contemporâne": 8958,
      "▁ileg": 8959,
      "▁rel=\"nofol": 8960,
      "ivelmente": 8961,
      "▁ampla": 8962,
      "▁\n|-id=0": 8963,
      "▁António": 8964,
      "▁Id": 8965,
      "▁ness": 8966,
      "▁desafio": 8967,
      "lá": 8968,
      "antemente": 8969,
      "▁compat": 8970,
      "▁riscos": 8971,
      "▁Cla": 8972,
      "▁módulo": 8973,
      "▁Assim": 8974,
      "ópter": 8975,
      "▁pior": 8976,
      "▁titular": 8977,
      "uventude": 8978,
      "▁Hu": 8979,
      "tanto": 8980,
      "▁envolve": 8981,
      "▁download": 8982,
      "▁vive": 8983,
      ">\n</": 8984,
      "▁Papa": 8985,
      "▁Assoc": 8986,
      "▁traduz": 8987,
      ".\n\nBibliografia": 8988,
      "▁praticamente": 8989,
      "▁assegu": 8990,
      "▁Prov": 8991,
      ");\n</code>": 8992,
      "estes": 8993,
      "▁trem": 8994,
      "▁View": 8995,
      "▁mapa": 8996,
      "10.": 8997,
      "che": 8998,
      "▁descobriu": 8999,
      "kes": 9000,
      "▁pequen": 9001,
      "▁R.": 9002,
      ".\nSegundo": 9003,
      "▁ger": 9004,
      "ange": 9005,
      "▁soci": 9006,
      "▁configurações": 9007,
      "▁Alf": 9008,
      "▁realizou": 9009,
      "postos": 9010,
      "▁consider": 9011,
      "▁necessárias": 9012,
      "▁vantagem": 9013,
      "▁Rou": 9014,
      "▁Constituição": 9015,
      "▁Tab": 9016,
      "▁servidores": 9017,
      "▁400": 9018,
      "▁Open": 9019,
      "IR": 9020,
      "▁cerc": 9021,
      "▁fas": 9022,
      "▁this": 9023,
      "lot": 9024,
      "▁function": 9025,
      "▁idéia": 9026,
      "▁mesmo,": 9027,
      "▁aç": 9028,
      "▁Smit": 9029,
      "▁rastre": 9030,
      "▁Nev": 9031,
      "▁debate": 9032,
      "▁seguida": 9033,
      "▁grand": 9034,
      "▁assistir": 9035,
      "▁SE": 9036,
      "crições": 9037,
      "▁assumiu": 9038,
      "us.": 9039,
      "▁estruturas": 9040,
      "ês,": 9041,
      "idação": 9042,
      "Us": 9043,
      "▁Bur": 9044,
      "BS": 9045,
      "▁estadunidense": 9046,
      "▁tenta": 9047,
      "▁obteve": 9048,
      "▁Seus": 9049,
      "▁promoção": 9050,
      "▁mandato": 9051,
      "ah": 9052,
      "▁ov": 9053,
      "▁juiz": 9054,
      "eremos": 9055,
      "▁rainha": 9056,
      "/A": 9057,
      "▁agress": 9058,
      "▁Cart": 9059,
      "||": 9060,
      "▁frio": 9061,
      "/12": 9062,
      "aminh": 9063,
      "tivo": 9064,
      "▁artic": 9065,
      "▁analisar": 9066,
      "▁senha": 9067,
      ".m": 9068,
      "▁registros": 9069,
      "esas": 9070,
      "unction": 9071,
      "▁Agora": 9072,
      "▁Bru": 9073,
      "ublicado": 9074,
      "▁Lev": 9075,
      "▁móveis": 9076,
      "-Americ": 9077,
      "▁últimas": 9078,
      "▁externas\n": 9079,
      "▁específica": 9080,
      "▁orientação": 9081,
      "▁más": 9082,
      "▁indica": 9083,
      "▁Vo": 9084,
      "▁concorre": 9085,
      "ativo,": 9086,
      "ol,": 9087,
      "▁requisitos": 9088,
      "▁Rog": 9089,
      "▁iria": 9090,
      "rinc": 9091,
      "▁dro": 9092,
      "▁Scho": 9093,
      "▁oficialmente": 9094,
      "▁ficando": 9095,
      "▁surgiu": 9096,
      "▁aparência": 9097,
      "▁km2,": 9098,
      "▁letras": 9099,
      "▁Lisboa,": 9100,
      "▁fraco": 9101,
      "▁Charlie": 9102,
      "▁Nações": 9103,
      "▁âmbito": 9104,
      "▁bloco": 9105,
      "aranh": 9106,
      "▁finais": 9107,
      "▁(18": 9108,
      "▁tropas": 9109,
      "▁formado": 9110,
      "▁|C": 9111,
      "▁orçamento": 9112,
      "ine,": 9113,
      "▁Ilha": 9114,
      "▁value": 9115,
      "▁<Code>": 9116,
      "conc": 9117,
      "▁fev": 9118,
      "width": 9119,
      "▁dificuldade": 9120,
      "▁ajudou": 9121,
      "▁nucle": 9122,
      ".É": 9123,
      "▁utilizada": 9124,
      "▁Escol": 9125,
      "▁servir": 9126,
      "▁igre": 9127,
      "▁AL": 9128,
      "▁Carl": 9129,
      "▁margem": 9130,
      "▁esclare": 9131,
      "63": 9132,
      "▁faço": 9133,
      "▁órgãos": 9134,
      "▁parar": 9135,
      "▁paredes": 9136,
      "▁sexta-feira": 9137,
      "▁plást": 9138,
      "▁Show": 9139,
      "▁Flor": 9140,
      "▁eficiência": 9141,
      "▁parâmetro": 9142,
      "▁sinc": 9143,
      "ismo.": 9144,
      "\n\nG": 9145,
      "value": 9146,
      "▁destes": 9147,
      "ônimo": 9148,
      "▁tratar": 9149,
      "▁conjunt": 9150,
      "▁sentimento": 9151,
      "presso": 9152,
      "▁salvar": 9153,
      "onso": 9154,
      "rian": 9155,
      "▁chuv": 9156,
      "▁sí": 9157,
      "erante": 9158,
      "▁Ray": 9159,
      "▁7,": 9160,
      "culos": 9161,
      "▁Cos": 9162,
      "▁ga": 9163,
      "▁formar": 9164,
      "▁consiste": 9165,
      "▁cânc": 9166,
      "▁prior": 9167,
      "▁dúvida": 9168,
      "ias.": 9169,
      "aros": 9170,
      "▁compositor": 9171,
      "–19": 9172,
      ".imgu": 9173,
      "▁França,": 9174,
      "▁aqui,": 9175,
      "tiva": 9176,
      "▁Palm": 9177,
      "▁duração": 9178,
      "▁equilíbrio": 9179,
      "▁esporte": 9180,
      "racia": 9181,
      "stack.imgu": 9182,
      "▁demanda": 9183,
      "▁Caso": 9184,
      "ritas": 9185,
      "ara,": 9186,
      "acial": 9187,
      "inic": 9188,
      "▁provoc": 9189,
      "▁secund": 9190,
      "▁esforços": 9191,
      "▁Ano": 9192,
      "i.stack.imgu": 9193,
      "▁absor": 9194,
      "▁Novembro": 9195,
      "▁contín": 9196,
      "▁caráter": 9197,
      "▁segredos": 9198,
      "▁Metro": 9199,
      "▁interesses": 9200,
      "ânia,": 9201,
      "▁explicar": 9202,
      "▁Antonio": 9203,
      "aceae": 9204,
      "atural": 9205,
      "rame": 9206,
      "▁acontecer": 9207,
      "▁declarou": 9208,
      "▁ocasião": 9209,
      "▁você,": 9210,
      "/c": 9211,
      "▁esperar": 9212,
      "imb": 9213,
      "▁PT": 9214,
      "▁lá,": 9215,
      "▁39": 9216,
      "site": 9217,
      "▁paul": 9218,
      "heu": 9219,
      "▁\"V": 9220,
      "▁Brad": 9221,
      "▁ph": 9222,
      "▁jard": 9223,
      "forme": 9224,
      "▁alerta": 9225,
      "▁social,": 9226,
      "▁atuais": 9227,
      "▁King": 9228,
      "▁Caval": 9229,
      "▁relacionadas": 9230,
      "gr": 9231,
      "\nOh,": 9232,
      "amba": 9233,
      "jar": 9234,
      "▁back": 9235,
      "▁medalha": 9236,
      "img": 9237,
      "500": 9238,
      "▁jogou": 9239,
      "▁sintomas": 9240,
      "▁serviu": 9241,
      "▁gás": 9242,
      "els": 9243,
      "`,": 9244,
      "▁hosped": 9245,
      "▁propag": 9246,
      "eografia": 9247,
      "_c": 9248,
      "ê-lo": 9249,
      "▁|0": 9250,
      "▁fazia": 9251,
      "▁Are": 9252,
      "▁acompanhar": 9253,
      "▁lago": 9254,
      "▁instalações": 9255,
      "▁trav": 9256,
      "▁Stud": 9257,
      "ength": 9258,
      "▁Índia": 9259,
      "etró": 9260,
      "ages": 9261,
      "▁provas": 9262,
      "▁pós-": 9263,
      "ener": 9264,
      "▁aprendiz": 9265,
      "lad": 9266,
      "?O": 9267,
      "▁Gold": 9268,
      "▁semana,": 9269,
      "▁adquir": 9270,
      "▁procedimento": 9271,
      "▁comida": 9272,
      "▁recuperação": 9273,
      "▁podendo": 9274,
      "ball": 9275,
      "en.": 9276,
      "▁cort": 9277,
      "▁profundo": 9278,
      "▁eficiente": 9279,
      "▁estudar": 9280,
      "olor": 9281,
      "▁isso.": 9282,
      "ESS": 9283,
      "CO": 9284,
      "▁perguntou": 9285,
      "itch": 9286,
      "fac": 9287,
      "▁inglesa": 9288,
      "ergul": 9289,
      "▁eco": 9290,
      "▁vencedor": 9291,
      "▁Fire": 9292,
      "▁Supre": 9293,
      "▁derru": 9294,
      "▁órgão": 9295,
      "▁compromet": 9296,
      "▁partidas": 9297,
      "-N": 9298,
      "dia": 9299,
      "▁imig": 9300,
      "▁anuncia": 9301,
      "ets": 9302,
      "▁sag": 9303,
      "▁paixão": 9304,
      "▁médicos": 9305,
      "divers": 9306,
      "▁quarta-feira": 9307,
      "re.": 9308,
      "▁realizados": 9309,
      "▁específicas": 9310,
      "rust": 9311,
      "▁dúvidas": 9312,
      "▁Mira": 9313,
      "yr": 9314,
      "▁-hum": 9315,
      "▁Victor": 9316,
      "▁Crim": 9317,
      "▁International": 9318,
      "▁moda": 9319,
      "▁empresa,": 9320,
      "▁Chica": 9321,
      "rota": 9322,
      "éia": 9323,
      "eus": 9324,
      "').": 9325,
      "▁destaca": 9326,
      "▁curto": 9327,
      "▁49": 9328,
      "ous": 9329,
      "▁expansão": 9330,
      "▁diferenças": 9331,
      "man,": 9332,
      ")\n</code>": 9333,
      "aram,": 9334,
      "hada": 9335,
      "ts": 9336,
      "▁Ceará": 9337,
      "▁Bom": 9338,
      "▁1994": 9339,
      "▁Mesmo": 9340,
      "▁emprést": 9341,
      "▁noite,": 9342,
      "▁idos": 9343,
      "▁dizem": 9344,
      "▁turnê": 9345,
      ".\nUma": 9346,
      "áce": 9347,
      "▁derrota": 9348,
      "▁Life": 9349,
      "▁Julho": 9350,
      "edade,": 9351,
      "istão": 9352,
      ".\n\nCoro:": 9353,
      "▁segundos": 9354,
      "EST": 9355,
      "ero,": 9356,
      "▁Ú": 9357,
      "▁[0": 9358,
      "▁resolv": 9359,
      "▁Israel": 9360,
      "▁posto": 9361,
      "▁-los": 9362,
      "éticos": 9363,
      "▁pedir": 9364,
      "▁tinta": 9365,
      "util": 9366,
      "gora": 9367,
      "▁passageiros": 9368,
      "▁FC": 9369,
      "▁utilizados": 9370,
      "▁bateria": 9371,
      "▁irmãos": 9372,
      "▁carne": 9373,
      "idd": 9374,
      "▁Carn": 9375,
      "▁acion": 9376,
      "▁150": 9377,
      "enses": 9378,
      "▁line": 9379,
      "irst": 9380,
      "▁marido": 9381,
      "▁reiv": 9382,
      "▁princípio": 9383,
      ",\nUm": 9384,
      "ethod": 9385,
      "á-los": 9386,
      "▁Conv": 9387,
      "▁vil": 9388,
      "▁ambas": 9389,
      ".\nCon": 9390,
      "▁raio": 9391,
      "▁atua": 9392,
      "ogia": 9393,
      "▁agência": 9394,
      "%)": 9395,
      "▁Hill": 9396,
      "▁lançar": 9397,
      "▁E.": 9398,
      "ADE": 9399,
      "▁Roy": 9400,
      "cão": 9401,
      "atab": 9402,
      "▁religião": 9403,
      "ísticos": 9404,
      "irl": 9405,
      "▁altamente": 9406,
      "▁nascimento": 9407,
      "tudo": 9408,
      "▁Estende-se": 9409,
      "▁respondeu": 9410,
      "By": 9411,
      "Conte": 9412,
      "▁recebido": 9413,
      ".\n\nUma": 9414,
      "▁publicou": 9415,
      "▁aula": 9416,
      "▁48": 9417,
      "▁pista": 9418,
      "ientes,": 9419,
      "▁Companh": 9420,
      "▁residência": 9421,
      "▁Love": 9422,
      "▁posições": 9423,
      "stein": 9424,
      "▁resolução": 9425,
      "heça": 9426,
      "▁foss": 9427,
      "ricas": 9428,
      "éns": 9429,
      "▁transferência": 9430,
      "▁''": 9431,
      "bras": 9432,
      "Foi": 9433,
      "▁Pic": 9434,
      "ADO": 9435,
      "▁saúde,": 9436,
      "▁har": 9437,
      "▁alternativa": 9438,
      "esto": 9439,
      "▁clim": 9440,
      "▁amar": 9441,
      "i\n": 9442,
      "▁correto": 9443,
      "mat": 9444,
      "▁\"W": 9445,
      "raram": 9446,
      "▁opiniões": 9447,
      ">\n\n<p>": 9448,
      "▁agentes": 9449,
      "▁distint": 9450,
      "chave": 9451,
      "ína": 9452,
      "▁</code>,": 9453,
      "▁chegando": 9454,
      "\nMinhas": 9455,
      "▁princípios": 9456,
      "/19": 9457,
      "▁óleo": 9458,
      "▁apel": 9459,
      "▁33": 9460,
      "arca": 9461,
      "▁assumir": 9462,
      "▁Sho": 9463,
      "ral,": 9464,
      "ólogo": 9465,
      "▁financeira": 9466,
      "▁esm": 9467,
      "▁trist": 9468,
      "▁·": 9469,
      "▁tive": 9470,
      "▁seres": 9471,
      "F,": 9472,
      "▁consciência": 9473,
      "##": 9474,
      "▁ela,": 9475,
      "▁Desta": 9476,
      "▁gord": 9477,
      "▁autorização": 9478,
      "▁particularmente": 9479,
      "▁usam": 9480,
      "f,": 9481,
      "▁econômica": 9482,
      "▁Luis": 9483,
      "B,": 9484,
      "▁falando": 9485,
      "ework": 9486,
      "▁Mer": 9487,
      "▁entidades": 9488,
      "▁descend": 9489,
      "áveis,": 9490,
      "▁promet": 9491,
      "▁Baix": 9492,
      ".\nEu": 9493,
      "▁ultrap": 9494,
      "▁advogado": 9495,
      "▁notas": 9496,
      "ee": 9497,
      "▁gráfico": 9498,
      "▁Outubro": 9499,
      "▁descon": 9500,
      "▁vender": 9501,
      "▁Mur": 9502,
      "▁fede": 9503,
      "▁Oscar": 9504,
      ".\n\nÉ": 9505,
      "▁self.": 9506,
      "▁terem": 9507,
      "▁Kafka": 9508,
      "▁descritos": 9509,
      "▁NEAT": 9510,
      "▁motivos": 9511,
      "ndo,": 9512,
      "on.": 9513,
      "\nJogadores": 9514,
      "▁guarda": 9515,
      "dios": 9516,
      "ífico": 9517,
      "▁comet": 9518,
      ".set": 9519,
      "▁Veja": 9520,
      "/2019": 9521,
      "▁Artes": 9522,
      "▁Peter": 9523,
      "▁ben": 9524,
      "▁impressão": 9525,
      "▁estabelecer": 9526,
      "▁estimada": 9527,
      "▁Mas,": 9528,
      "▁atingiu": 9529,
      "pont": 9530,
      "\nAn": 9531,
      "\nSeu": 9532,
      "et,": 9533,
      "▁britânico": 9534,
      "▁Fab": 9535,
      "dd": 9536,
      "▁interrom": 9537,
      "\n!": 9538,
      "▁from": 9539,
      "nome": 9540,
      "ade,": 9541,
[...]
